{
  "version": "1.0",
  "truncation": null,
  "padding": null,
  "added_tokens": [
    {
      "id": 0,
      "content": "[PAD]",
      "single_word": false,
      "lstrip": false,
      "rstrip": false,
      "normalized": false,
      "special": true
    },
    {
      "id": 1,
      "content": "[UNK]",
      "single_word": false,
      "lstrip": false,
      "rstrip": false,
      "normalized": false,
      "special": true
    },
    {
      "id": 2,
      "content": "[CLS]",
      "single_word": false,
      "lstrip": false,
      "rstrip": false,
      "normalized": false,
      "special": true
    },
    {
      "id": 3,
      "content": "[SEP]",
      "single_word": false,
      "lstrip": false,
      "rstrip": false,
      "normalized": false,
      "special": true
    }
  ],
  "normalizer": null,
  "pre_tokenizer": {
    "type": "Whitespace"
  },
  "post_processor": {
    "type": "TemplateProcessing",
    "single": [
      {
        "SpecialToken": {
          "id": "[CLS]",
          "type_id": 0
        }
      },
      {
        "Sequence": {
          "id": "A",
          "type_id": 0
        }
      },
      {
        "SpecialToken": {
          "id": "[SEP]",
          "type_id": 0
        }
      }
    ],
    "pair": [
      {
        "SpecialToken": {
          "id": "[CLS]",
          "type_id": 0
        }
      },
      {
        "Sequence": {
          "id": "A",
          "type_id": 0
        }
      },
      {
        "SpecialToken": {
          "id": "[SEP]",
          "type_id": 0
        }
      },
      {
        "Sequence": {
          "id": "B",
          "type_id": 1
        }
      },
      {
        "SpecialToken": {
          "id": "[SEP]",
          "type_id": 1
        }
      }
    ],
    "special_tokens": {
      "[CLS]": {
        "id": "[CLS]",
        "ids": [
          2
        ],
        "tokens": [
          "[CLS]"
        ]
      },
      "[SEP]": {
        "id": "[SEP]",
        "ids": [
          3
        ],
        "tokens": [
          "[SEP]"
        ]
      }
    }
  },
  "decoder": null,
  "model": {
    "type": "BPE",
    "dropout": null,
    "unk_token": null,
    "continuing_subword_prefix": null,
    "end_of_word_suffix": null,
    "fuse_unk": false,
    "byte_fallback": false,
    "ignore_merges": false,
    "vocab": {
      "[PAD]": 0,
      "[UNK]": 1,
      "[CLS]": 2,
      "[SEP]": 3,
      "\b": 4,
      "\u0010": 5,
      "!": 6,
      "\"": 7,
      "#": 8,
      "$": 9,
      "%": 10,
      "&": 11,
      "'": 12,
      "(": 13,
      ")": 14,
      "*": 15,
      "+": 16,
      ",": 17,
      "-": 18,
      ".": 19,
      "/": 20,
      "0": 21,
      "1": 22,
      "2": 23,
      "3": 24,
      "4": 25,
      "5": 26,
      "6": 27,
      "7": 28,
      "8": 29,
      "9": 30,
      ":": 31,
      ";": 32,
      "<": 33,
      "=": 34,
      ">": 35,
      "?": 36,
      "@": 37,
      "A": 38,
      "B": 39,
      "C": 40,
      "D": 41,
      "E": 42,
      "F": 43,
      "G": 44,
      "H": 45,
      "I": 46,
      "J": 47,
      "K": 48,
      "L": 49,
      "M": 50,
      "N": 51,
      "O": 52,
      "P": 53,
      "Q": 54,
      "R": 55,
      "S": 56,
      "T": 57,
      "U": 58,
      "V": 59,
      "W": 60,
      "X": 61,
      "Y": 62,
      "Z": 63,
      "[": 64,
      "\\": 65,
      "]": 66,
      "^": 67,
      "_": 68,
      "`": 69,
      "a": 70,
      "b": 71,
      "c": 72,
      "d": 73,
      "e": 74,
      "f": 75,
      "g": 76,
      "h": 77,
      "i": 78,
      "j": 79,
      "k": 80,
      "l": 81,
      "m": 82,
      "n": 83,
      "o": 84,
      "p": 85,
      "q": 86,
      "r": 87,
      "s": 88,
      "t": 89,
      "u": 90,
      "v": 91,
      "w": 92,
      "x": 93,
      "y": 94,
      "z": 95,
      "{": 96,
      "|": 97,
      "}": 98,
      "~": 99,
      "": 100,
      "": 101,
      "": 102,
      "": 103,
      "": 104,
      "": 105,
      "": 106,
      "": 107,
      "": 108,
      "": 109,
      "¡": 110,
      "¢": 111,
      "£": 112,
      "¤": 113,
      "¦": 114,
      "§": 115,
      "¨": 116,
      "«": 117,
      "­": 118,
      "®": 119,
      "°": 120,
      "³": 121,
      "´": 122,
      "·": 123,
      "º": 124,
      "»": 125,
      "½": 126,
      "¾": 127,
      "¿": 128,
      "À": 129,
      "Á": 130,
      "Ã": 131,
      "Ä": 132,
      "Å": 133,
      "È": 134,
      "É": 135,
      "Ê": 136,
      "Õ": 137,
      "Ø": 138,
      "Ü": 139,
      "ß": 140,
      "à": 141,
      "á": 142,
      "â": 143,
      "ã": 144,
      "ä": 145,
      "å": 146,
      "æ": 147,
      "ç": 148,
      "è": 149,
      "é": 150,
      "ê": 151,
      "ë": 152,
      "ì": 153,
      "í": 154,
      "î": 155,
      "ï": 156,
      "ð": 157,
      "ñ": 158,
      "ò": 159,
      "ó": 160,
      "ô": 161,
      "ö": 162,
      "ø": 163,
      "ù": 164,
      "ú": 165,
      "û": 166,
      "ü": 167,
      "ý": 168,
      "ō": 169,
      "–": 170,
      "‘": 171,
      "’": 172,
      "“": 173,
      "”": 174,
      "…": 175,
      "₤": 176,
      "": 177,
      "th": 178,
      "er": 179,
      "in": 180,
      "an": 181,
      "the": 182,
      "re": 183,
      "on": 184,
      "ou": 185,
      "at": 186,
      "as": 187,
      "to": 188,
      "en": 189,
      "and": 190,
      "ed": 191,
      "or": 192,
      "is": 193,
      "al": 194,
      "ing": 195,
      "it": 196,
      "es": 197,
      "ar": 198,
      "st": 199,
      "ic": 200,
      "he": 201,
      "me": 202,
      "of": 203,
      "le": 204,
      "ly": 205,
      "was": 206,
      "oo": 207,
      "ac": 208,
      "ve": 209,
      "be": 210,
      "ha": 211,
      "ot": 212,
      "ere": 213,
      "se": 214,
      "ver": 215,
      "for": 216,
      "ll": 217,
      "ut": 218,
      "ay": 219,
      "wh": 220,
      "wi": 221,
      "ri": 222,
      "ch": 223,
      "so": 224,
      "ow": 225,
      "The": 226,
      "ti": 227,
      "id": 228,
      "that": 229,
      "om": 230,
      "ad": 231,
      "you": 232,
      "..": 233,
      "we": 234,
      "ld": 235,
      "gh": 236,
      "et": 237,
      "ood": 238,
      "ent": 239,
      "us": 240,
      "pl": 241,
      "with": 242,
      "ke": 243,
      "ab": 244,
      "li": 245,
      "ir": 246,
      "out": 247,
      "ur": 248,
      "my": 249,
      "are": 250,
      "one": 251,
      "but": 252,
      "un": 253,
      "all": 254,
      "ce": 255,
      "ter": 256,
      "ice": 257,
      "this": 258,
      "not": 259,
      "mo": 260,
      "have": 261,
      "de": 262,
      "ex": 263,
      "am": 264,
      "they": 265,
      "pe": 266,
      "ould": 267,
      "ro": 268,
      "ag": 269,
      "had": 270,
      "ion": 271,
      "end": 272,
      "lo": 273,
      "ast": 274,
      "our": 275,
      "ally": 276,
      "ne": 277,
      ".\\": 278,
      "ant": 279,
      "up": 280,
      "were": 281,
      "ght": 282,
      "sh": 283,
      "ser": 284,
      "very": 285,
      "ust": 286,
      "ace": 287,
      "com": 288,
      "ap": 289,
      "fe": 290,
      "ther": 291,
      "der": 292,
      "op": 293,
      "\"\"": 294,
      "here": 295,
      "ack": 296,
      "get": 297,
      "ca": 298,
      "go": 299,
      "if": 300,
      "place": 301,
      "food": 302,
      "thing": 303,
      "ers": 304,
      "fr": 305,
      "sa": 306,
      "do": 307,
      "co": 308,
      "\\\"\"": 309,
      "il": 310,
      "tr": 311,
      "good": 312,
      "ain": 313,
      "qu": 314,
      "some": 315,
      "est": 316,
      "no": 317,
      "el": 318,
      "ked": 319,
      "like": 320,
      "ul": 321,
      "ess": 322,
      "there": 323,
      "ate": 324,
      "oun": 325,
      "po": 326,
      "any": 327,
      "day": 328,
      "reat": 329,
      "serv": 330,
      "Th": 331,
      "ite": 332,
      "im": 333,
      "just": 334,
      "ie": 335,
      "ak": 336,
      "way": 337,
      "af": 338,
      "pr": 339,
      "con": 340,
      "We": 341,
      "It": 342,
      "su": 343,
      "ven": 344,
      "res": 345,
      "ich": 346,
      "would": 347,
      "time": 348,
      "wor": 349,
      "from": 350,
      "ation": 351,
      "order": 352,
      "art": 353,
      "ick": 354,
      "fri": 355,
      "tion": 356,
      "ill": 357,
      "per": 358,
      "did": 359,
      "other": 360,
      "te": 361,
      "br": 362,
      "can": 363,
      "...": 364,
      "fin": 365,
      "ck": 366,
      "ink": 367,
      "back": 368,
      "av": 369,
      "about": 370,
      "able": 371,
      "ous": 372,
      "own": 373,
      "use": 374,
      "wa": 375,
      "ge": 376,
      "sp": 377,
      "che": 378,
      "ct": 379,
      "their": 380,
      "!!": 381,
      "ho": 382,
      "by": 383,
      "ough": 384,
      "too": 385,
      "ake": 386,
      "ish": 387,
      "wait": 388,
      "ty": 389,
      "ig": 390,
      "em": 391,
      "ard": 392,
      "great": 393,
      "service": 394,
      "pro": 395,
      "when": 396,
      "ive": 397,
      "min": 398,
      "over": 399,
      "off": 400,
      "now": 401,
      "will": 402,
      "what": 403,
      "ook": 404,
      "um": 405,
      "ight": 406,
      "more": 407,
      "ound": 408,
      "which": 409,
      "ide": 410,
      "your": 411,
      "really": 412,
      "dr": 413,
      "hi": 414,
      "pre": 415,
      "been": 416,
      "friend": 417,
      "cause": 418,
      "pp": 419,
      "cr": 420,
      "only": 421,
      "even": 422,
      "got": 423,
      "ine": 424,
      "iz": 425,
      "them": 426,
      "int": 427,
      "ong": 428,
      "ist": 429,
      "has": 430,
      "nI": 431,
      "gr": 432,
      "They": 433,
      "rest": 434,
      "vie": 435,
      "because": 436,
      "don": 437,
      "she": 438,
      "This": 439,
      "could": 440,
      "ple": 441,
      "oom": 442,
      "who": 443,
      "bo": 444,
      "red": 445,
      "fo": 446,
      "want": 447,
      "act": 448,
      "itt": 449,
      "ble": 450,
      "ye": 451,
      "sto": 452,
      "than": 453,
      "00": 454,
      "ever": 455,
      "ity": 456,
      "room": 457,
      "ars": 458,
      "ci": 459,
      "every": 460,
      "man": 461,
      "sal": 462,
      "her": 463,
      "after": 464,
      "aur": 465,
      "fl": 466,
      "ass": 467,
      "aurant": 468,
      "ious": 469,
      "dis": 470,
      "fre": 471,
      "cl": 472,
      "My": 473,
      "tast": 474,
      "try": 475,
      "ment": 476,
      "bu": 477,
      "didn": 478,
      "tw": 479,
      "irst": 480,
      "gu": 481,
      "ence": 482,
      "ress": 483,
      "bet": 484,
      "nThe": 485,
      "restaurant": 486,
      "ople": 487,
      "eat": 488,
      "ry": 489,
      "ort": 490,
      "side": 491,
      "said": 492,
      "ade": 493,
      "men": 494,
      "know": 495,
      "jo": 496,
      "say": 497,
      "Wh": 498,
      "mu": 499,
      "ind": 500,
      "people": 501,
      "how": 502,
      "read": 503,
      "bl": 504,
      "look": 505,
      "age": 506,
      "also": 507,
      "eg": 508,
      "point": 509,
      "ful": 510,
      "ved": 511,
      "des": 512,
      "ext": 513,
      "aw": 514,
      "avor": 515,
      "much": 516,
      "tom": 517,
      "nice": 518,
      "ated": 519,
      "ese": 520,
      "most": 521,
      "ordered": 522,
      "down": 523,
      "his": 524,
      "came": 525,
      "well": 526,
      "An": 527,
      "dec": 528,
      "then": 529,
      "ile": 530,
      "work": 531,
      "drink": 532,
      "again": 533,
      "So": 534,
      "its": 535,
      "/>": 536,
      "never": 537,
      "where": 538,
      "ff": 539,
      "night": 540,
      "fore": 541,
      "first": 542,
      "ail": 543,
      "ittle": 544,
      "view": 545,
      "aff": 546,
      "ies": 547,
      "call": 548,
      "None": 549,
      "come": 550,
      "ste": 551,
      "new": 552,
      "peri": 553,
      "bur": 554,
      "loc": 555,
      "little": 556,
      "hot": 557,
      "ber": 558,
      "ach": 559,
      "minut": 560,
      "ways": 561,
      "went": 562,
      "cre": 563,
      "ian": 564,
      "ater": 565,
      "better": 566,
      "tri": 567,
      "think": 568,
      "two": 569,
      "see": 570,
      "az": 571,
      "table": 572,
      "make": 573,
      "made": 574,
      "spe": 575,
      "bar": 576,
      "going": 577,
      "tim": 578,
      "experi": 579,
      "ave": 580,
      "part": 581,
      "cus": 582,
      "lic": 583,
      "ure": 584,
      "need": 585,
      "pret": 586,
      "din": 587,
      "right": 588,
      "ought": 589,
      "best": 590,
      "ving": 591,
      "unch": 592,
      "ps": 593,
      "sm": 594,
      "In": 595,
      "ooked": 596,
      "icken": 597,
      "staff": 598,
      "les": 599,
      "ue": 600,
      "bad": 601,
      "minutes": 602,
      "car": 603,
      "ner": 604,
      "ger": 605,
      "ek": 606,
      "before": 607,
      "comm": 608,
      "ction": 609,
      "sel": 610,
      "cle": 611,
      "ting": 612,
      "pretty": 613,
      "ts": 614,
      "Ch": 615,
      "alk": 616,
      ").": 617,
      "urn": 618,
      "love": 619,
      "ark": 620,
      "ually": 621,
      "less": 622,
      "always": 623,
      "bus": 624,
      "lot": 625,
      "menu": 626,
      "vis": 627,
      "though": 628,
      "take": 629,
      "oup": 630,
      "experience": 631,
      "told": 632,
      "times": 633,
      "fer": 634,
      "hour": 635,
      "into": 636,
      "ep": 637,
      "comp": 638,
      "around": 639,
      "show": 640,
      "med": 641,
      "hel": 642,
      "ame": 643,
      "still": 644,
      "ason": 645,
      "Veg": 646,
      "review": 647,
      "long": 648,
      "ince": 649,
      "....": 650,
      "pric": 651,
      "There": 652,
      "di": 653,
      "mon": 654,
      "uce": 655,
      "custom": 656,
      "happ": 657,
      "asked": 658,
      "pt": 659,
      "ool": 660,
      "Vegas": 661,
      "sup": 662,
      "ans": 663,
      "seem": 664,
      "He": 665,
      "pect": 666,
      "ru": 667,
      "turn": 668,
      "few": 669,
      "sure": 670,
      "bit": 671,
      "izz": 672,
      "air": 673,
      "chicken": 674,
      "10": 675,
      "If": 676,
      "And": 677,
      "But": 678,
      "appoint": 679,
      "wr": 680,
      "give": 681,
      "cas": 682,
      "week": 683,
      "ten": 684,
      "au": 685,
      "should": 686,
      "clo": 687,
      "char": 688,
      "ance": 689,
      "another": 690,
      "find": 691,
      "ens": 692,
      "won": 693,
      "ss": 694,
      "ings": 695,
      "wasn": 696,
      "let": 697,
      "itely": 698,
      "ix": 699,
      "took": 700,
      "friendly": 701,
      "while": 702,
      "tor": 703,
      "being": 704,
      "por": 705,
      "self": 706,
      "him": 707,
      "meal": 708,
      "gl": 709,
      "price": 710,
      "finitely": 711,
      "stand": 712,
      "something": 713,
      "last": 714,
      "--": 715,
      "high": 716,
      "cor": 717,
      "ull": 718,
      "commend": 719,
      "ra": 720,
      "ub": 721,
      "flavor": 722,
      "atch": 723,
      "cial": 724,
      "does": 725,
      "izza": 726,
      "since": 727,
      "feel": 728,
      "next": 729,
      "many": 730,
      "line": 731,
      "ree": 732,
      "recommend": 733,
      "thr": 734,
      "No": 735,
      "check": 736,
      "small": 737,
      "pers": 738,
      "fil": 739,
      "ask": 740,
      "cho": 741,
      "light": 742,
      "ves": 743,
      "ily": 744,
      "dif": 745,
      "When": 746,
      "joy": 747,
      "cheese": 748,
      "ms": 749,
      "may": 750,
      "manag": 751,
      "help": 752,
      "old": 753,
      "io": 754,
      "bre": 755,
      "u00": 756,
      "big": 757,
      "ang": 758,
      "ft": 759,
      "fresh": 760,
      "location": 761,
      "sl": 762,
      "start": 763,
      "under": 764,
      "pay": 765,
      "stay": 766,
      "!\\": 767,
      "expect": 768,
      "imp": 769,
      "fast": 770,
      "gre": 771,
      "dish": 772,
      "You": 773,
      "ign": 774,
      "home": 775,
      "salad": 776,
      "gg": 777,
      "fun": 778,
      "server": 779,
      "ef": 780,
      "enjoy": 781,
      "St": 782,
      "mak": 783,
      "sauce": 784,
      "She": 785,
      "wanted": 786,
      "ating": 787,
      "gi": 788,
      "put": 789,
      "Not": 790,
      "definitely": 791,
      "ning": 792,
      "pizza": 793,
      "delic": 794,
      "coun": 795,
      "mp": 796,
      "ud": 797,
      "ont": 798,
      "open": 799,
      "ER": 800,
      "ren": 801,
      "mus": 802,
      "ably": 803,
      "Al": 804,
      "cent": 805,
      "tions": 806,
      "chi": 807,
      "add": 808,
      "delicious": 809,
      "disappoint": 810,
      "lunch": 811,
      "sur": 812,
      "person": 813,
      "tow": 814,
      "hotel": 815,
      "worth": 816,
      "cut": 817,
      "ato": 818,
      "/><": 819,
      "ome": 820,
      "As": 821,
      "lt": 822,
      "clean": 823,
      "Re": 824,
      "ality": 825,
      "visit": 826,
      "movie": 827,
      "oney": 828,
      "left": 829,
      "azing": 830,
      "differ": 831,
      "iness": 832,
      "drinks": 833,
      "guy": 834,
      "same": 835,
      "20": 836,
      "area": 837,
      "plain": 838,
      "used": 839,
      "meat": 840,
      "Be": 841,
      "special": 842,
      "wich": 843,
      "mer": 844,
      "ok": 845,
      "tell": 846,
      "plac": 847,
      "inter": 848,
      "play": 849,
      "fect": 850,
      "else": 851,
      "away": 852,
      "through": 853,
      "andwich": 854,
      "ph": 855,
      "tain": 856,
      "ise": 857,
      "dinner": 858,
      "sc": 859,
      "sit": 860,
      "ary": 861,
      "top": 862,
      "col": 863,
      "),": 864,
      "looking": 865,
      "exce": 866,
      "rible": 867,
      "ided": 868,
      "reason": 869,
      "enough": 870,
      "cond": 871,
      "arly": 872,
      "kind": 873,
      "iss": 874,
      "os": 875,
      "ank": 876,
      "uff": 877,
      "appe": 878,
      "pic": 879,
      "real": 880,
      "ouse": 881,
      "39": 882,
      "sandwich": 883,
      "tak": 884,
      "amazing": 885,
      "uck": 886,
      "hand": 887,
      "thought": 888,
      "ol": 889,
      "tried": 890,
      "everything": 891,
      "30": 892,
      "ces": 893,
      "walk": 894,
      "customer": 895,
      "irl": 896,
      "nothing": 897,
      "store": 898,
      "ase": 899,
      "sha": 900,
      "things": 901,
      "years": 902,
      "dri": 903,
      "free": 904,
      "star": 905,
      "different": 906,
      "reme": 907,
      "set": 908,
      "cer": 909,
      "roll": 910,
      "money": 911,
      "cour": 912,
      "break": 913,
      "favor": 914,
      "u00e": 915,
      "Af": 916,
      "taste": 917,
      "swe": 918,
      "hal": 919,
      "actually": 920,
      "nO": 921,
      "water": 922,
      "offer": 923,
      "Ser": 924,
      "called": 925,
      "film": 926,
      "fee": 927,
      "burger": 928,
      "pot": 929,
      "anything": 930,
      "reg": 931,
      "past": 932,
      "ange": 933,
      "stars": 934,
      "both": 935,
      "ose": 936,
      "quality": 937,
      "care": 938,
      "found": 939,
      "For": 940,
      "lar": 941,
      "ia": 942,
      "pped": 943,
      "friends": 944,
      "nWe": 945,
      "door": 946,
      "girl": 947,
      "lection": 948,
      "why": 949,
      "deal": 950,
      "arri": 951,
      "After": 952,
      "shop": 953,
      "ations": 954,
      "ons": 955,
      "return": 956,
      "fam": 957,
      "ready": 958,
      "enti": 959,
      "app": 960,
      "sus": 961,
      "business": 962,
      "ash": 963,
      "happy": 964,
      "prices": 965,
      "bread": 966,
      "ately": 967,
      "bably": 968,
      "band": 969,
      "done": 970,
      "half": 971,
      "least": 972,
      "sol": 973,
      "town": 974,
      "fill": 975,
      "att": 976,
      "ip": 977,
      "cur": 978,
      "war": 979,
      "full": 980,
      "hard": 981,
      "ob": 982,
      "front": 983,
      "manager": 984,
      "led": 985,
      "par": 986,
      "head": 987,
      "port": 988,
      "run": 989,
      "looked": 990,
      "ery": 991,
      "watch": 992,
      "quick": 993,
      "gar": 994,
      "perfect": 995,
      "cons": 996,
      "super": 997,
      "ath": 998,
      "waitress": 999,
      "cou": 1000,
      "decided": 1001,
      "15": 1002,
      "bas": 1003,
      "these": 1004,
      "du": 1005,
      "coming": 1006,
      ".<": 1007,
      "str": 1008,
      "ents": 1009,
      "getting": 1010,
      "ale": 1011,
      "esome": 1012,
      "fries": 1013,
      "!!!": 1014,
      "hair": 1015,
      "house": 1016,
      "ican": 1017,
      "steak": 1018,
      "sat": 1019,
      "IN": 1020,
      "far": 1021,
      "ular": 1022,
      "rip": 1023,
      "De": 1024,
      "vers": 1025,
      "probably": 1026,
      "TH": 1027,
      "pat": 1028,
      "year": 1029,
      "ables": 1030,
      "places": 1031,
      "kid": 1032,
      "ition": 1033,
      "sweet": 1034,
      "How": 1035,
      "hor": 1036,
      "cooked": 1037,
      "those": 1038,
      "That": 1039,
      "sed": 1040,
      "cont": 1041,
      "ates": 1042,
      "uring": 1043,
      "val": 1044,
      "Ne": 1045,
      "gs": 1046,
      "NO": 1047,
      "comple": 1048,
      "mber": 1049,
      "Great": 1050,
      "alked": 1051,
      "aid": 1052,
      "What": 1053,
      "rice": 1054,
      "ared": 1055,
      "gen": 1056,
      "ited": 1057,
      "each": 1058,
      "favorite": 1059,
      "without": 1060,
      "cks": 1061,
      "ize": 1062,
      "gave": 1063,
      "oc": 1064,
      "offee": 1065,
      "pie": 1066,
      "exp": 1067,
      "til": 1068,
      "quite": 1069,
      "selection": 1070,
      "rece": 1071,
      "days": 1072,
      "ual": 1073,
      "que": 1074,
      "vice": 1075,
      "almost": 1076,
      "ced": 1077,
      "Un": 1078,
      "beer": 1079,
      "ush": 1080,
      "buff": 1081,
      "llent": 1082,
      "once": 1083,
      "plo": 1084,
      "waiting": 1085,
      "aren": 1086,
      "someone": 1087,
      "second": 1088,
      "ins": 1089,
      "month": 1090,
      "later": 1091,
      "All": 1092,
      "itch": 1093,
      "list": 1094,
      "awesome": 1095,
      "ets": 1096,
      "sushi": 1097,
      "three": 1098,
      "ted": 1099,
      "ither": 1100,
      "ute": 1101,
      "fish": 1102,
      "lie": 1103,
      "ices": 1104,
      "iously": 1105,
      "main": 1106,
      "usband": 1107,
      "On": 1108,
      "must": 1109,
      "pick": 1110,
      "bs": 1111,
      "pri": 1112,
      "cess": 1113,
      "served": 1114,
      "couldn": 1115,
      "yes": 1116,
      "ON": 1117,
      "couple": 1118,
      "hu": 1119,
      "such": 1120,
      "proble": 1121,
      "sphere": 1122,
      "breakfast": 1123,
      "Fri": 1124,
      "inside": 1125,
      "spot": 1126,
      "trying": 1127,
      "husband": 1128,
      "ible": 1129,
      "reviews": 1130,
      "cream": 1131,
      "cheap": 1132,
      "doesn": 1133,
      "large": 1134,
      "RE": 1135,
      "coffee": 1136,
      "US": 1137,
      "mor": 1138,
      "pres": 1139,
      "tasted": 1140,
      "mosphere": 1141,
      "music": 1142,
      "having": 1143,
      "rooms": 1144,
      "stead": 1145,
      "dy": 1146,
      "disappointed": 1147,
      "la": 1148,
      "ross": 1149,
      "tun": 1150,
      "tra": 1151,
      "hours": 1152,
      "keep": 1153,
      "ions": 1154,
      "ped": 1155,
      "miss": 1156,
      "sign": 1157,
      "??": 1158,
      "incl": 1159,
      "kes": 1160,
      "whole": 1161,
      "ago": 1162,
      "low": 1163,
      "until": 1164,
      "bed": 1165,
      "wonder": 1166,
      "family": 1167,
      "outside": 1168,
      "impress": 1169,
      "tive": 1170,
      "Every": 1171,
      "wer": 1172,
      "AN": 1173,
      "gy": 1174,
      "od": 1175,
      "group": 1176,
      "sk": 1177,
      "ended": 1178,
      "busy": 1179,
      "talk": 1180,
      "wrong": 1181,
      "stuff": 1182,
      "finally": 1183,
      "park": 1184,
      "desser": 1185,
      "seemed": 1186,
      "atmosphere": 1187,
      "flo": 1188,
      "fan": 1189,
      "fried": 1190,
      "mind": 1191,
      "tables": 1192,
      "bill": 1193,
      "close": 1194,
      "excellent": 1195,
      "cool": 1196,
      "ensive": 1197,
      "eating": 1198,
      "fi": 1199,
      "bro": 1200,
      "eas": 1201,
      "cred": 1202,
      "ized": 1203,
      "tasty": 1204,
      "u00e9": 1205,
      "walked": 1206,
      "during": 1207,
      "huge": 1208,
      "ult": 1209,
      "isn": 1210,
      "rill": 1211,
      "lack": 1212,
      "als": 1213,
      "ny": 1214,
      "ino": 1215,
      "comes": 1216,
      "ton": 1217,
      "card": 1218,
      "fact": 1219,
      "ically": 1220,
      "Service": 1221,
      "ah": 1222,
      "sing": 1223,
      "ters": 1224,
      "Se": 1225,
      "decent": 1226,
      "items": 1227,
      "ned": 1228,
      "cold": 1229,
      "course": 1230,
      "50": 1231,
      "At": 1232,
      "deli": 1233,
      "complete": 1234,
      "soup": 1235,
      "buy": 1236,
      "bring": 1237,
      "priced": 1238,
      "emplo": 1239,
      "tiz": 1240,
      "cially": 1241,
      "ender": 1242,
      "waiter": 1243,
      "saw": 1244,
      "wine": 1245,
      "phone": 1246,
      "sever": 1247,
      "iet": 1248,
      "felt": 1249,
      "nor": 1250,
      "bot": 1251,
      "wife": 1252,
      "icy": 1253,
      "brought": 1254,
      "ness": 1255,
      "atten": 1256,
      "might": 1257,
      "everyone": 1258,
      "strip": 1259,
      "sty": 1260,
      "maybe": 1261,
      "trip": 1262,
      "boy": 1263,
      "beef": 1264,
      "ding": 1265,
      "rude": 1266,
      "Don": 1267,
      "needed": 1268,
      "extra": 1269,
      "live": 1270,
      "potato": 1271,
      "several": 1272,
      "Br": 1273,
      "either": 1274,
      "usually": 1275,
      "ird": 1276,
      "treat": 1277,
      "job": 1278,
      "party": 1279,
      "tot": 1280,
      "makes": 1281,
      "Mo": 1282,
      "solute": 1283,
      "surpr": 1284,
      "ged": 1285,
      "To": 1286,
      "club": 1287,
      "atur": 1288,
      "name": 1289,
      "ball": 1290,
      "appetiz": 1291,
      "complain": 1292,
      "llow": 1293,
      "mar": 1294,
      "rimp": 1295,
      "buffet": 1296,
      "seen": 1297,
      "ines": 1298,
      "Food": 1299,
      "belie": 1300,
      "ised": 1301,
      "company": 1302,
      "Our": 1303,
      "astic": 1304,
      "restaurants": 1305,
      "Ro": 1306,
      "lad": 1307,
      "Also": 1308,
      "started": 1309,
      "floor": 1310,
      "waited": 1311,
      "employe": 1312,
      "ma": 1313,
      "plan": 1314,
      "tac": 1315,
      "instead": 1316,
      "cake": 1317,
      "pass": 1318,
      ".\\\"\"": 1319,
      "guess": 1320,
      "dry": 1321,
      "dishes": 1322,
      "aut": 1323,
      "cost": 1324,
      "pleas": 1325,
      "owner": 1326,
      "short": 1327,
      "plate": 1328,
      "cup": 1329,
      "!!!!": 1330,
      "Sun": 1331,
      "ider": 1332,
      "medi": 1333,
      "ward": 1334,
      "ta": 1335,
      "ev": 1336,
      "leave": 1337,
      "pack": 1338,
      "pur": 1339,
      "igh": 1340,
      "customers": 1341,
      "ient": 1342,
      "crow": 1343,
      "slow": 1344,
      "itting": 1345,
      "wouldn": 1346,
      "cook": 1347,
      "Very": 1348,
      "ques": 1349,
      "atter": 1350,
      "recei": 1351,
      "elp": 1352,
      "pm": 1353,
      "cked": 1354,
      "life": 1355,
      "ative": 1356,
      "VER": 1357,
      "outh": 1358,
      "worst": 1359,
      "today": 1360,
      "Then": 1361,
      "arrived": 1362,
      "problem": 1363,
      "key": 1364,
      "glass": 1365,
      "cy": 1366,
      "prof": 1367,
      "Just": 1368,
      "ST": 1369,
      "However": 1370,
      "cover": 1371,
      "ib": 1372,
      "ove": 1373,
      "crowd": 1374,
      "cha": 1375,
      "ails": 1376,
      "AT": 1377,
      "ster": 1378,
      "AL": 1379,
      "Gr": 1380,
      "One": 1381,
      "Ex": 1382,
      "late": 1383,
      "happen": 1384,
      "already": 1385,
      "ks": 1386,
      "class": 1387,
      "esday": 1388,
      "fine": 1389,
      "espe": 1390,
      "mm": 1391,
      "anyone": 1392,
      "form": 1393,
      "especially": 1394,
      "ran": 1395,
      "Bo": 1396,
      "sim": 1397,
      "yet": 1398,
      "interest": 1399,
      "sch": 1400,
      "issu": 1401,
      "amb": 1402,
      "gan": 1403,
      "kids": 1404,
      "bag": 1405,
      "host": 1406,
      "Pl": 1407,
      "En": 1408,
      "stop": 1409,
      "hun": 1410,
      "nMy": 1411,
      "paid": 1412,
      "finish": 1413,
      "stre": 1414,
      "dining": 1415,
      "pool": 1416,
      "Wi": 1417,
      "enjoyed": 1418,
      "season": 1419,
      "iced": 1420,
      "sof": 1421,
      "making": 1422,
      "enter": 1423,
      "pan": 1424,
      "Mon": 1425,
      "produ": 1426,
      "expensive": 1427,
      "New": 1428,
      "ote": 1429,
      "ween": 1430,
      "absolute": 1431,
      "sub": 1432,
      "12": 1433,
      "decor": 1434,
      "seated": 1435,
      "First": 1436,
      "gener": 1437,
      "tle": 1438,
      "ond": 1439,
      "shrimp": 1440,
      "counter": 1441,
      "mark": 1442,
      "prom": 1443,
      "AP": 1444,
      "lit": 1445,
      "seems": 1446,
      "ones": 1447,
      "dessert": 1448,
      "sy": 1449,
      "aving": 1450,
      "poor": 1451,
      "var": 1452,
      "OR": 1453,
      "mention": 1454,
      "ical": 1455,
      "myself": 1456,
      "smo": 1457,
      "near": 1458,
      "pork": 1459,
      "**": 1460,
      "includ": 1461,
      "extreme": 1462,
      "bor": 1463,
      "uters": 1464,
      "wom": 1465,
      "mean": 1466,
      "cu": 1467,
      "change": 1468,
      "working": 1469,
      "loved": 1470,
      "Che": 1471,
      "num": 1472,
      "gets": 1473,
      "charge": 1474,
      "Chin": 1475,
      "comfor": 1476,
      "drive": 1477,
      "doing": 1478,
      "dro": 1479,
      "understand": 1480,
      "between": 1481,
      "wish": 1482,
      "oh": 1483,
      "exc": 1484,
      "colate": 1485,
      "rect": 1486,
      "rather": 1487,
      "augh": 1488,
      "entire": 1489,
      "dress": 1490,
      "seat": 1491,
      "bac": 1492,
      "ear": 1493,
      "story": 1494,
      "horrible": 1495,
      "Now": 1496,
      "mid": 1497,
      "rid": 1498,
      "Good": 1499,
      "lish": 1500,
      "ude": 1501,
      "mix": 1502,
      "ending": 1503,
      "book": 1504,
      "iful": 1505,
      "Las": 1506,
      "verage": 1507,
      "vel": 1508,
      "NOT": 1509,
      "na": 1510,
      "fac": 1511,
      "Satur": 1512,
      "extremely": 1513,
      "bow": 1514,
      "given": 1515,
      "four": 1516,
      "fortun": 1517,
      "spicy": 1518,
      "beaut": 1519,
      "fix": 1520,
      "guys": 1521,
      "local": 1522,
      "hop": 1523,
      "onest": 1524,
      "poss": 1525,
      "ctor": 1526,
      "ides": 1527,
      "wonderful": 1528,
      "ional": 1529,
      "Co": 1530,
      "tern": 1531,
      "world": 1532,
      "ai": 1533,
      ")\\": 1534,
      "terrible": 1535,
      "weekend": 1536,
      "ier": 1537,
      "believe": 1538,
      "nS": 1539,
      "date": 1540,
      "however": 1541,
      "May": 1542,
      "liked": 1543,
      "looks": 1544,
      "options": 1545,
      "ele": 1546,
      "\\\"\".": 1547,
      "ds": 1548,
      "size": 1549,
      "parking": 1550,
      "Well": 1551,
      "Saturday": 1552,
      "Friday": 1553,
      "chips": 1554,
      "emp": 1555,
      "requ": 1556,
      "Or": 1557,
      "ator": 1558,
      "style": 1559,
      "amoun": 1560,
      "gers": 1561,
      "reserv": 1562,
      "remember": 1563,
      "Pho": 1564,
      "11": 1565,
      "bart": 1566,
      "oot": 1567,
      "verall": 1568,
      "ING": 1569,
      "mess": 1570,
      "ense": 1571,
      "itchen": 1572,
      "icul": 1573,
      "ping": 1574,
      "consider": 1575,
      "mil": 1576,
      "wel": 1577,
      "arch": 1578,
      "soon": 1579,
      "ley": 1580,
      "LO": 1581,
      "kept": 1582,
      "warm": 1583,
      "Some": 1584,
      "Amer": 1585,
      "completely": 1586,
      "Mex": 1587,
      "bath": 1588,
      "helpful": 1589,
      "mom": 1590,
      "apo": 1591,
      "early": 1592,
      "etc": 1593,
      "ures": 1594,
      "absolutely": 1595,
      "sitting": 1596,
      "pho": 1597,
      "fant": 1598,
      ":\\": 1599,
      "ister": 1600,
      "fair": 1601,
      "nIt": 1602,
      "chang": 1603,
      "ene": 1604,
      "expected": 1605,
      "taking": 1606,
      "ris": 1607,
      "stick": 1608,
      "son": 1609,
      "hind": 1610,
      "says": 1611,
      "ild": 1612,
      "land": 1613,
      "doll": 1614,
      "game": 1615,
      "ments": 1616,
      "chocolate": 1617,
      "pop": 1618,
      "nThis": 1619,
      "conf": 1620,
      "heard": 1621,
      "serve": 1622,
      "posed": 1623,
      "ement": 1624,
      "mach": 1625,
      "sugg": 1626,
      "Do": 1627,
      "beautiful": 1628,
      "nam": 1629,
      "dog": 1630,
      "okay": 1631,
      "oil": 1632,
      "wall": 1633,
      "sme": 1634,
      "king": 1635,
      "morning": 1636,
      "Reuters": 1637,
      "bland": 1638,
      "je": 1639,
      "ouch": 1640,
      "regular": 1641,
      "rolls": 1642,
      "Sunday": 1643,
      "till": 1644,
      "ling": 1645,
      "amount": 1646,
      "prov": 1647,
      "impressed": 1648,
      "Ar": 1649,
      "behind": 1650,
      "Le": 1651,
      "ju": 1652,
      "lob": 1653,
      "py": 1654,
      "200": 1655,
      "alian": 1656,
      "explain": 1657,
      "tic": 1658,
      "pping": 1659,
      "dou": 1660,
      "recent": 1661,
      "Fr": 1662,
      "tea": 1663,
      "received": 1664,
      "Wor": 1665,
      "average": 1666,
      "ident": 1667,
      "charac": 1668,
      "hold": 1669,
      "profess": 1670,
      "gone": 1671,
      "nP": 1672,
      "lim": 1673,
      "cris": 1674,
      "tip": 1675,
      "cal": 1676,
      "Li": 1677,
      "oud": 1678,
      "months": 1679,
      "hit": 1680,
      "kitchen": 1681,
      "gin": 1682,
      "Their": 1683,
      "wind": 1684,
      "pain": 1685,
      "saying": 1686,
      "NE": 1687,
      "lady": 1688,
      "tem": 1689,
      "THE": 1690,
      "ied": 1691,
      "LE": 1692,
      "tly": 1693,
      "avail": 1694,
      "orry": 1695,
      "nA": 1696,
      "fantastic": 1697,
      "employees": 1698,
      "fic": 1699,
      "enty": 1700,
      "ather": 1701,
      "body": 1702,
      "ows": 1703,
      "Thank": 1704,
      "Com": 1705,
      "white": 1706,
      "across": 1707,
      "kill": 1708,
      "veget": 1709,
      "AS": 1710,
      "fully": 1711,
      "dir": 1712,
      "sound": 1713,
      "hope": 1714,
      "Oh": 1715,
      "quickly": 1716,
      "aring": 1717,
      "tacos": 1718,
      "sum": 1719,
      "soft": 1720,
      "certain": 1721,
      "twice": 1722,
      "sell": 1723,
      "others": 1724,
      "grill": 1725,
      "vi": 1726,
      "egg": 1727,
      "hum": 1728,
      "unk": 1729,
      "fortunately": 1730,
      "scre": 1731,
      "hile": 1732,
      "25": 1733,
      "Even": 1734,
      "plus": 1735,
      "zen": 1736,
      "fig": 1737,
      "purch": 1738,
      "comfortable": 1739,
      "street": 1740,
      "ards": 1741,
      "empty": 1742,
      "giving": 1743,
      "desk": 1744,
      "gam": 1745,
      "Car": 1746,
      "move": 1747,
      "bacon": 1748,
      "offered": 1749,
      "smell": 1750,
      "Dr": 1751,
      "cot": 1752,
      "log": 1753,
      "ooth": 1754,
      "itself": 1755,
      "cakes": 1756,
      "shot": 1757,
      "Can": 1758,
      "needs": 1759,
      "lead": 1760,
      "VE": 1761,
      "alth": 1762,
      "knew": 1763,
      "box": 1764,
      "gether": 1765,
      "ork": 1766,
      "follow": 1767,
      "ries": 1768,
      "40": 1769,
      "sea": 1770,
      "using": 1771,
      "Mar": 1772,
      "ret": 1773,
      "CE": 1774,
      "mass": 1775,
      "Mexican": 1776,
      "19": 1777,
      "together": 1778,
      "urs": 1779,
      "rel": 1780,
      "face": 1781,
      "present": 1782,
      "moved": 1783,
      "often": 1784,
      "den": 1785,
      "ial": 1786,
      "da": 1787,
      "type": 1788,
      "available": 1789,
      "weren": 1790,
      "ship": 1791,
      "hy": 1792,
      "With": 1793,
      "ined": 1794,
      "honest": 1795,
      "ower": 1796,
      "pull": 1797,
      "oose": 1798,
      "office": 1799,
      "due": 1800,
      "iting": 1801,
      "IS": 1802,
      "count": 1803,
      "black": 1804,
      "OU": 1805,
      "burgers": 1806,
      "casino": 1807,
      "bucks": 1808,
      "contin": 1809,
      "prep": 1810,
      "Sh": 1811,
      "ba": 1812,
      "avo": 1813,
      "fro": 1814,
      "number": 1815,
      "easy": 1816,
      "tick": 1817,
      "BB": 1818,
      "along": 1819,
      "OK": 1820,
      "norm": 1821,
      "nW": 1822,
      "youn": 1823,
      "lots": 1824,
      "bowl": 1825,
      "gry": 1826,
      "tory": 1827,
      "row": 1828,
      "professional": 1829,
      "TV": 1830,
      "yum": 1831,
      "hai": 1832,
      "ics": 1833,
      "green": 1834,
      "crab": 1835,
      "Maybe": 1836,
      "ore": 1837,
      "tomato": 1838,
      "taken": 1839,
      "nThey": 1840,
      "det": 1841,
      "idea": 1842,
      "portions": 1843,
      "standing": 1844,
      "Tu": 1845,
      "case": 1846,
      "choice": 1847,
      "ying": 1848,
      "spo": 1849,
      "space": 1850,
      "orders": 1851,
      "experien": 1852,
      "attentive": 1853,
      "deser": 1854,
      "enix": 1855,
      "pleasant": 1856,
      "product": 1857,
      "highly": 1858,
      "butter": 1859,
      "dle": 1860,
      "although": 1861,
      "piece": 1862,
      "orig": 1863,
      "iance": 1864,
      "inv": 1865,
      "ire": 1866,
      "sn": 1867,
      "nIf": 1868,
      "Man": 1869,
      "speak": 1870,
      "Ste": 1871,
      "consist": 1872,
      "AR": 1873,
      "dam": 1874,
      "child": 1875,
      "spend": 1876,
      "resp": 1877,
      "AM": 1878,
      "walking": 1879,
      "corn": 1880,
      "conven": 1881,
      "non": 1882,
      "origin": 1883,
      "nSo": 1884,
      "inst": 1885,
      "tech": 1886,
      "ities": 1887,
      "nood": 1888,
      "exact": 1889,
      "wings": 1890,
      "stayed": 1891,
      "appetizer": 1892,
      "45": 1893,
      "ages": 1894,
      "Mic": 1895,
      "post": 1896,
      "weeks": 1897,
      "ased": 1898,
      "LY": 1899,
      "ug": 1900,
      "lay": 1901,
      "?!": 1902,
      "round": 1903,
      "totally": 1904,
      "uni": 1905,
      "AY": 1906,
      "irth": 1907,
      "five": 1908,
      "Any": 1909,
      "gt": 1910,
      "chef": 1911,
      "posit": 1912,
      "100": 1913,
      "gas": 1914,
      "tru": 1915,
      "dirty": 1916,
      "seating": 1917,
      "based": 1918,
      "ww": 1919,
      "supposed": 1920,
      "Go": 1921,
      "OO": 1922,
      "nB": 1923,
      "salsa": 1924,
      "cock": 1925,
      "bite": 1926,
      "ordering": 1927,
      "paying": 1928,
      "amp": 1929,
      "met": 1930,
      "rib": 1931,
      "Chinese": 1932,
      "wed": 1933,
      "vegg": 1934,
      "guest": 1935,
      "level": 1936,
      "cap": 1937,
      "erally": 1938,
      "loud": 1939,
      "azy": 1940,
      "girls": 1941,
      "charged": 1942,
      "greet": 1943,
      "Everything": 1944,
      "appro": 1945,
      "Qu": 1946,
      "ann": 1947,
      "potatoes": 1948,
      "rito": 1949,
      "pict": 1950,
      "evening": 1951,
      "Phoenix": 1952,
      "goes": 1953,
      "filled": 1954,
      "spr": 1955,
      "ita": 1956,
      "portion": 1957,
      "?\\": 1958,
      "noticed": 1959,
      "viously": 1960,
      "Yelp": 1961,
      "ada": 1962,
      "allow": 1963,
      "Sal": 1964,
      "fall": 1965,
      "Italian": 1966,
      "patio": 1967,
      "Thai": 1968,
      "aim": 1969,
      "build": 1970,
      "Tr": 1971,
      "imply": 1972,
      "Chicken": 1973,
      "Yes": 1974,
      "ili": 1975,
      "Ca": 1976,
      "minute": 1977,
      "reasonable": 1978,
      "turned": 1979,
      "quot": 1980,
      "suggest": 1981,
      "Monday": 1982,
      "bartender": 1983,
      "mac": 1984,
      "request": 1985,
      "arely": 1986,
      "ison": 1987,
      "iety": 1988,
      "including": 1989,
      "...\\": 1990,
      "sad": 1991,
      "flavors": 1992,
      "health": 1993,
      "takes": 1994,
      "ump": 1995,
      "vo": 1996,
      "ging": 1997,
      "Scot": 1998,
      "immedi": 1999,
      "birth": 2000,
      "mis": 2001,
      "simple": 2002,
      "woman": 2003,
      "ibly": 2004,
      "deliver": 2005,
      "opened": 2006,
      "Bl": 2007,
      "zz": 2008,
      "touch": 2009,
      "boyfriend": 2010,
      "sho": 2011,
      "sort": 2012,
      "plenty": 2013,
      "awful": 2014,
      "Had": 2015,
      "issue": 2016,
      "proper": 2017,
      "happened": 2018,
      "rep": 2019,
      "perfectly": 2020,
      "chair": 2021,
      "curity": 2022,
      "yourself": 2023,
      "servers": 2024,
      "ured": 2025,
      "interesting": 2026,
      "talking": 2027,
      "eggs": 2028,
      "win": 2029,
      "ini": 2030,
      "beans": 2031,
      "satis": 2032,
      "eaten": 2033,
      "ban": 2034,
      "asy": 2035,
      "ients": 2036,
      "pasta": 2037,
      "possible": 2038,
      "incred": 2039,
      "iocre": 2040,
      "rent": 2041,
      "American": 2042,
      "ature": 2043,
      "tors": 2044,
      "young": 2045,
      "credit": 2046,
      "wood": 2047,
      "variety": 2048,
      "longer": 2049,
      "stem": 2050,
      "ants": 2051,
      "closed": 2052,
      "wash": 2053,
      "overall": 2054,
      "appointment": 2055,
      "IT": 2056,
      "stopped": 2057,
      "iculous": 2058,
      "hear": 2059,
      "sandwiches": 2060,
      "OM": 2061,
      "spent": 2062,
      "vious": 2063,
      "surprised": 2064,
      "sent": 2065,
      "pol": 2066,
      "BBQ": 2067,
      "addition": 2068,
      "watching": 2069,
      "nL": 2070,
      "oupon": 2071,
      "meet": 2072,
      "bought": 2073,
      "ror": 2074,
      "avy": 2075,
      "nC": 2076,
      "hostess": 2077,
      "against": 2078,
      "dan": 2079,
      "Thurs": 2080,
      "rench": 2081,
      "kn": 2082,
      "pes": 2083,
      ".....": 2084,
      "Me": 2085,
      "bi": 2086,
      "event": 2087,
      "ility": 2088,
      "pieces": 2089,
      "aper": 2090,
      "chance": 2091,
      "cockt": 2092,
      "Wed": 2093,
      "Tuesday": 2094,
      "mouth": 2095,
      "Char": 2096,
      "ior": 2097,
      "Will": 2098,
      "color": 2099,
      "excited": 2100,
      "eye": 2101,
      "search": 2102,
      "airs": 2103,
      "literally": 2104,
      "checked": 2105,
      "haven": 2106,
      "iny": 2107,
      "mist": 2108,
      "glad": 2109,
      "ref": 2110,
      "ption": 2111,
      "While": 2112,
      "beat": 2113,
      "packed": 2114,
      "mi": 2115,
      "grab": 2116,
      "immediately": 2117,
      "desc": 2118,
      "Bur": 2119,
      "covered": 2120,
      "clear": 2121,
      "sales": 2122,
      "mas": 2123,
      "within": 2124,
      "gest": 2125,
      "waste": 2126,
      "Pr": 2127,
      "mall": 2128,
      "mediocre": 2129,
      "ingred": 2130,
      "reservation": 2131,
      "Pe": 2132,
      "burrito": 2133,
      "simply": 2134,
      "feeling": 2135,
      "lost": 2136,
      "ges": 2137,
      "action": 2138,
      "Went": 2139,
      "middle": 2140,
      "jor": 2141,
      "apan": 2142,
      "itude": 2143,
      "bathroom": 2144,
      "ists": 2145,
      "ali": 2146,
      "hang": 2147,
      "terday": 2148,
      "cing": 2149,
      "birthday": 2150,
      "Up": 2151,
      "wise": 2152,
      "ties": 2153,
      "Thursday": 2154,
      "sour": 2155,
      "school": 2156,
      "worse": 2157,
      "hungry": 2158,
      "preci": 2159,
      "placed": 2160,
      "total": 2161,
      "Love": 2162,
      "ising": 2163,
      "crust": 2164,
      "99": 2165,
      "ablish": 2166,
      "Gre": 2167,
      "management": 2168,
      "gel": 2169,
      "concer": 2170,
      "gain": 2171,
      "prepared": 2172,
      "joint": 2173,
      "creat": 2174,
      "spl": 2175,
      "unless": 2176,
      "luck": 2177,
      "typic": 2178,
      "Really": 2179,
      "arently": 2180,
      "ites": 2181,
      "garlic": 2182,
      "establish": 2183,
      "dire": 2184,
      "adv": 2185,
      "sle": 2186,
      "heart": 2187,
      "choose": 2188,
      "sam": 2189,
      "bottle": 2190,
      "Bar": 2191,
      "14": 2192,
      "\\$": 2193,
      "ED": 2194,
      "Fin": 2195,
      "neigh": 2196,
      "market": 2197,
      "ux": 2198,
      "showed": 2199,
      "mill": 2200,
      "nH": 2201,
      "Pal": 2202,
      "correct": 2203,
      "ana": 2204,
      "Cor": 2205,
      "Po": 2206,
      "fa": 2207,
      "strong": 2208,
      "foot": 2209,
      "Wedn": 2210,
      "dark": 2211,
      "tour": 2212,
      "train": 2213,
      "answer": 2214,
      "uts": 2215,
      "mush": 2216,
      "sw": 2217,
      "pen": 2218,
      "forgot": 2219,
      "online": 2220,
      "Pro": 2221,
      "thin": 2222,
      "pper": 2223,
      "selves": 2224,
      "somewhere": 2225,
      ":)": 2226,
      "begin": 2227,
      "lect": 2228,
      "attention": 2229,
      "rees": 2230,
      "share": 2231,
      "Nor": 2232,
      "Japan": 2233,
      "exactly": 2234,
      "cept": 2235,
      "atever": 2236,
      "whe": 2237,
      "pet": 2238,
      "ridiculous": 2239,
      "noon": 2240,
      "forward": 2241,
      "antly": 2242,
      "berry": 2243,
      "added": 2244,
      "sorry": 2245,
      "grilled": 2246,
      "yummy": 2247,
      "organ": 2248,
      "bother": 2249,
      "overpriced": 2250,
      "ls": 2251,
      "running": 2252,
      "daugh": 2253,
      "asking": 2254,
      "dance": 2255,
      "disappointing": 2256,
      "yesterday": 2257,
      "mine": 2258,
      "hood": 2259,
      ").\\": 2260,
      "plates": 2261,
      "slight": 2262,
      "appreci": 2263,
      "changed": 2264,
      "vies": 2265,
      "report": 2266,
      "ational": 2267,
      "neighbor": 2268,
      "iv": 2269,
      "pite": 2270,
      "ses": 2271,
      "medium": 2272,
      "leg": 2273,
      "Wednesday": 2274,
      "rating": 2275,
      "thinking": 2276,
      "recently": 2277,
      "equ": 2278,
      "law": 2279,
      "crowded": 2280,
      "playing": 2281,
      "brown": 2282,
      "option": 2283,
      "attitude": 2284,
      "team": 2285,
      "ham": 2286,
      "French": 2287,
      "ES": 2288,
      "rush": 2289,
      "nic": 2290,
      "yo": 2291,
      "city": 2292,
      "anno": 2293,
      "fru": 2294,
      "ledge": 2295,
      "ingredients": 2296,
      "thentic": 2297,
      "dale": 2298,
      "asted": 2299,
      "major": 2300,
      "write": 2301,
      "trad": 2302,
      "wo": 2303,
      "RI": 2304,
      "worked": 2305,
      "security": 2306,
      "system": 2307,
      "Sp": 2308,
      "single": 2309,
      "beers": 2310,
      "lax": 2311,
      "above": 2312,
      "hol": 2313,
      "ope": 2314,
      "funny": 2315,
      "located": 2316,
      "section": 2317,
      "photo": 2318,
      "Ok": 2319,
      "13": 2320,
      "claim": 2321,
      "except": 2322,
      "frozen": 2323,
      "crispy": 2324,
      "pepper": 2325,
      "shopping": 2326,
      "sport": 2327,
      "ots": 2328,
      "hell": 2329,
      "24": 2330,
      "cannot": 2331,
      "text": 2332,
      "tender": 2333,
      "matter": 2334,
      "Why": 2335,
      "seriously": 2336,
      "nT": 2337,
      "net": 2338,
      "original": 2339,
      "sun": 2340,
      "please": 2341,
      "tsdale": 2342,
      "relax": 2343,
      "third": 2344,
      "ys": 2345,
      "choices": 2346,
      "cash": 2347,
      "seafood": 2348,
      "Is": 2349,
      "recommended": 2350,
      "state": 2351,
      "hands": 2352,
      "movies": 2353,
      "ired": 2354,
      "meals": 2355,
      "compl": 2356,
      "ground": 2357,
      "prefer": 2358,
      "board": 2359,
      "hate": 2360,
      "anywhere": 2361,
      "Never": 2362,
      "Mc": 2363,
      "word": 2364,
      "ilar": 2365,
      "Gu": 2366,
      "ler": 2367,
      "staying": 2368,
      "Per": 2369,
      "enders": 2370,
      "refill": 2371,
      "shows": 2372,
      "finished": 2373,
      "Cr": 2374,
      "salty": 2375,
      "authentic": 2376,
      "nWhen": 2377,
      "bers": 2378,
      "gust": 2379,
      "scr": 2380,
      "Joh": 2381,
      "slic": 2382,
      "seeing": 2383,
      "scene": 2384,
      "Unfortunately": 2385,
      "usual": 2386,
      "ened": 2387,
      "weird": 2388,
      "neg": 2389,
      "standard": 2390,
      "haps": 2391,
      "true": 2392,
      "opin": 2393,
      "Jo": 2394,
      "Red": 2395,
      "EN": 2396,
      "ze": 2397,
      "ded": 2398,
      "Best": 2399,
      "ming": 2400,
      "lett": 2401,
      "sometimes": 2402,
      "works": 2403,
      "dollars": 2404,
      "Ira": 2405,
      "Definitely": 2406,
      "cli": 2407,
      "paper": 2408,
      "daughter": 2409,
      "leaving": 2410,
      "Ari": 2411,
      "Am": 2412,
      "ram": 2413,
      "noodles": 2414,
      "Iraq": 2415,
      "sou": 2416,
      "CH": 2417,
      "uc": 2418,
      "die": 2419,
      "nOverall": 2420,
      "truly": 2421,
      "Cl": 2422,
      "basically": 2423,
      "fat": 2424,
      "bun": 2425,
      "urt": 2426,
      "ilet": 2427,
      "vir": 2428,
      "cast": 2429,
      "ado": 2430,
      "AND": 2431,
      "appy": 2432,
      "flat": 2433,
      "John": 2434,
      "sides": 2435,
      "dist": 2436,
      "cab": 2437,
      "import": 2438,
      "fut": 2439,
      "tiny": 2440,
      "barely": 2441,
      "stru": 2442,
      "ken": 2443,
      "lear": 2444,
      "quar": 2445,
      "process": 2446,
      "cute": 2447,
      "mentioned": 2448,
      "usage": 2449,
      "lights": 2450,
      "BE": 2451,
      "stra": 2452,
      "ambiance": 2453,
      "acting": 2454,
      "unique": 2455,
      "appetizers": 2456,
      "LA": 2457,
      "perfor": 2458,
      "certainly": 2459,
      "lease": 2460,
      "bud": 2461,
      "situ": 2462,
      "arian": 2463,
      "iment": 2464,
      "nThere": 2465,
      "brunch": 2466,
      "ital": 2467,
      "specials": 2468,
      "Par": 2469,
      "center": 2470,
      "salmon": 2471,
      "ane": 2472,
      "Scottsdale": 2473,
      "Star": 2474,
      "ict": 2475,
      "oooo": 2476,
      "els": 2477,
      "eng": 2478,
      "item": 2479,
      "ina": 2480,
      "flavorful": 2481,
      "apolog": 2482,
      "lines": 2483,
      "entertain": 2484,
      "Te": 2485,
      "serving": 2486,
      "onion": 2487,
      "pricey": 2488,
      "ently": 2489,
      "issues": 2490,
      "delivery": 2491,
      "18": 2492,
      "bab": 2493,
      "inform": 2494,
      "nearly": 2495,
      "lobster": 2496,
      "logy": 2497,
      "tap": 2498,
      "ends": 2499,
      "character": 2500,
      "imag": 2501,
      "note": 2502,
      "avoid": 2503,
      "ahead": 2504,
      "forget": 2505,
      "Hot": 2506,
      "AZ": 2507,
      "fied": 2508,
      "greeted": 2509,
      "Overall": 2510,
      "comb": 2511,
      "member": 2512,
      "Fl": 2513,
      "picked": 2514,
      "dep": 2515,
      "opinion": 2516,
      "Con": 2517,
      "fu": 2518,
      ".)": 2519,
      "lock": 2520,
      "mul": 2521,
      "straight": 2522,
      "whatever": 2523,
      "rup": 2524,
      "Des": 2525,
      "u00f": 2526,
      "ky": 2527,
      "rate": 2528,
      "stairs": 2529,
      "Lo": 2530,
      "Both": 2531,
      "yelp": 2532,
      "question": 2533,
      "dogs": 2534,
      "fit": 2535,
      "Its": 2536,
      "clearly": 2537,
      "Ind": 2538,
      "expecting": 2539,
      "Bell": 2540,
      "?\\\"\"": 2541,
      "App": 2542,
      "lier": 2543,
      "apart": 2544,
      "airport": 2545,
      "seats": 2546,
      "save": 2547,
      "nOn": 2548,
      "Dis": 2549,
      "screen": 2550,
      "rare": 2551,
      "none": 2552,
      "laugh": 2553,
      "spec": 2554,
      "ific": 2555,
      "tasting": 2556,
      "Nothing": 2557,
      "mins": 2558,
      "ination": 2559,
      "NY": 2560,
      "personal": 2561,
      "owing": 2562,
      "alone": 2563,
      "value": 2564,
      "greasy": 2565,
      "ona": 2566,
      "alo": 2567,
      "ubl": 2568,
      "means": 2569,
      "agre": 2570,
      "salt": 2571,
      "accom": 2572,
      "moder": 2573,
      "afternoon": 2574,
      "disgust": 2575,
      "power": 2576,
      "ware": 2577,
      "design": 2578,
      "Nice": 2579,
      "fail": 2580,
      "taco": 2581,
      "omb": 2582,
      "limited": 2583,
      "crazy": 2584,
      "!)": 2585,
      "stud": 2586,
      "vac": 2587,
      "Asian": 2588,
      "establishment": 2589,
      "ift": 2590,
      "building": 2591,
      "occas": 2592,
      "GE": 2593,
      "illa": 2594,
      "massage": 2595,
      "nails": 2596,
      "aged": 2597,
      "dead": 2598,
      "employee": 2599,
      "vic": 2600,
      "elsewhere": 2601,
      "obviously": 2602,
      "dressing": 2603,
      "partic": 2604,
      "future": 2605,
      "thick": 2606,
      "lettuce": 2607,
      "York": 2608,
      "ral": 2609,
      "memor": 2610,
      "burgh": 2611,
      "reading": 2612,
      "($": 2613,
      "compan": 2614,
      "questions": 2615,
      "known": 2616,
      "ats": 2617,
      "mixed": 2618,
      "stoo": 2619,
      "VI": 2620,
      "bal": 2621,
      "window": 2622,
      "helped": 2623,
      "tempt": 2624,
      "Although": 2625,
      "16": 2626,
      "From": 2627,
      "chain": 2628,
      "sense": 2629,
      "apped": 2630,
      "ica": 2631,
      "direct": 2632,
      "ountain": 2633,
      "trave": 2634,
      "sched": 2635,
      "Chi": 2636,
      "VERY": 2637,
      "Most": 2638,
      "push": 2639,
      "onions": 2640,
      "sausage": 2641,
      "mag": 2642,
      "nAs": 2643,
      "remind": 2644,
      "games": 2645,
      "Mac": 2646,
      "included": 2647,
      "lla": 2648,
      "rock": 2649,
      "entrees": 2650,
      "ield": 2651,
      "slightly": 2652,
      "offic": 2653,
      "mostly": 2654,
      "Sup": 2655,
      "tur": 2656,
      "owners": 2657,
      "gotten": 2658,
      "entree": 2659,
      "station": 2660,
      "returning": 2661,
      "convers": 2662,
      "country": 2663,
      "yond": 2664,
      "knows": 2665,
      "explained": 2666,
      "upon": 2667,
      "chan": 2668,
      "mistake": 2669,
      "compet": 2670,
      "itas": 2671,
      "typical": 2672,
      "thor": 2673,
      "hh": 2674,
      "fairly": 2675,
      "bt": 2676,
      "deep": 2677,
      "pulled": 2678,
      "ford": 2679,
      "ID": 2680,
      "treated": 2681,
      "iled": 2682,
      "women": 2683,
      "glasses": 2684,
      "Finally": 2685,
      "thank": 2686,
      "ops": 2687,
      "Thanks": 2688,
      "Like": 2689,
      "heat": 2690,
      "crap": 2691,
      "contact": 2692,
      "ried": 2693,
      "tastes": 2694,
      "support": 2695,
      "adm": 2696,
      "fruit": 2697,
      "test": 2698,
      "ara": 2699,
      "Next": 2700,
      "Was": 2701,
      "bunch": 2702,
      "DO": 2703,
      "ney": 2704,
      "patr": 2705,
      "prompt": 2706,
      "considering": 2707,
      "services": 2708,
      "load": 2709,
      "ience": 2710,
      "nFor": 2711,
      "tt": 2712,
      "By": 2713,
      "assu": 2714,
      "lemon": 2715,
      "multi": 2716,
      "TO": 2717,
      "ener": 2718,
      "odd": 2719,
      "ribs": 2720,
      "Ab": 2721,
      "Val": 2722,
      "nService": 2723,
      "played": 2724,
      "easily": 2725,
      "Engl": 2726,
      "gross": 2727,
      "veggies": 2728,
      "bel": 2729,
      "sau": 2730,
      "version": 2731,
      "rew": 2732,
      "fire": 2733,
      "salads": 2734,
      "gover": 2735,
      "formed": 2736,
      "problems": 2737,
      "ams": 2738,
      "ppings": 2739,
      "Del": 2740,
      "higher": 2741,
      "characters": 2742,
      "ni": 2743,
      "notice": 2744,
      "knowledge": 2745,
      "sil": 2746,
      "ples": 2747,
      "booth": 2748,
      "cin": 2749,
      "AD": 2750,
      "Out": 2751,
      "missing": 2752,
      "ject": 2753,
      "scen": 2754,
      "trans": 2755,
      "continu": 2756,
      "Did": 2757,
      "ero": 2758,
      "AC": 2759,
      "nights": 2760,
      "straw": 2761,
      "downtown": 2762,
      "aking": 2763,
      "chose": 2764,
      "ashed": 2765,
      "Ha": 2766,
      "These": 2767,
      "pract": 2768,
      "milk": 2769,
      "honestly": 2770,
      "Eur": 2771,
      "ench": 2772,
      "frequ": 2773,
      "ket": 2774,
      "million": 2775,
      "stores": 2776,
      "spin": 2777,
      "tract": 2778,
      "ring": 2779,
      "performan": 2780,
      "road": 2781,
      "burn": 2782,
      "products": 2783,
      "aft": 2784,
      "ays": 2785,
      "pose": 2786,
      "situation": 2787,
      "ached": 2788,
      "separ": 2789,
      "toppings": 2790,
      "corner": 2791,
      "aster": 2792,
      "stri": 2793,
      "van": 2794,
      "Indian": 2795,
      "blue": 2796,
      "telling": 2797,
      "returned": 2798,
      "neighborhood": 2799,
      "South": 2800,
      "nother": 2801,
      "suc": 2802,
      "forever": 2803,
      "Other": 2804,
      "toast": 2805,
      "oper": 2806,
      "comed": 2807,
      "vent": 2808,
      "LL": 2809,
      "vegetarian": 2810,
      "disappointment": 2811,
      "Ph": 2812,
      "80": 2813,
      "kick": 2814,
      "HO": 2815,
      "commun": 2816,
      "ential": 2817,
      "cum": 2818,
      "previous": 2819,
      "accommo": 2820,
      "guests": 2821,
      "dont": 2822,
      "tuna": 2823,
      "beyond": 2824,
      "children": 2825,
      "uss": 2826,
      "60": 2827,
      "bled": 2828,
      "doctor": 2829,
      "rated": 2830,
      "acks": 2831,
      "squ": 2832,
      "cashi": 2833,
      "sick": 2834,
      "exam": 2835,
      "sold": 2836,
      "Who": 2837,
      "vert": 2838,
      "despite": 2839,
      "aves": 2840,
      "ggy": 2841,
      "kinda": 2842,
      "LOVE": 2843,
      "Intern": 2844,
      "salon": 2845,
      "gent": 2846,
      "grap": 2847,
      "rich": 2848,
      "normal": 2849,
      "fur": 2850,
      "tax": 2851,
      "positive": 2852,
      "recor": 2853,
      "double": 2854,
      "ands": 2855,
      "webs": 2856,
      "apparently": 2857,
      "plot": 2858,
      "become": 2859,
      "dum": 2860,
      "experienced": 2861,
      "desserts": 2862,
      "mart": 2863,
      "visiting": 2864,
      "ults": 2865,
      "anyway": 2866,
      "cell": 2867,
      "ride": 2868,
      "impro": 2869,
      "tradition": 2870,
      "Since": 2871,
      "UN": 2872,
      "antic": 2873,
      "films": 2874,
      "stood": 2875,
      "Once": 2876,
      "convenient": 2877,
      "NEVER": 2878,
      "expectations": 2879,
      "nail": 2880,
      "akes": 2881,
      "coupon": 2882,
      "ory": 2883,
      "purchase": 2884,
      "dollar": 2885,
      "complaint": 2886,
      "House": 2887,
      "Ter": 2888,
      "Inc": 2889,
      "visited": 2890,
      "range": 2891,
      "chairs": 2892,
      "mother": 2893,
      "surprise": 2894,
      "Let": 2895,
      "fight": 2896,
      "temp": 2897,
      "bank": 2898,
      "website": 2899,
      "similar": 2900,
      "match": 2901,
      "baked": 2902,
      "split": 2903,
      "resort": 2904,
      "site": 2905,
      "eyes": 2906,
      "quarter": 2907,
      "modern": 2908,
      "Cali": 2909,
      "tough": 2910,
      "ceed": 2911,
      "bottom": 2912,
      "Sto": 2913,
      "mic": 2914,
      "eff": 2915,
      "shut": 2916,
      "moving": 2917,
      "fol": 2918,
      "Ye": 2919,
      "SO": 2920,
      "ony": 2921,
      "margar": 2922,
      "vide": 2923,
      "drunk": 2924,
      "filling": 2925,
      "nch": 2926,
      "combo": 2927,
      "Two": 2928,
      "refun": 2929,
      "fy": 2930,
      "Wa": 2931,
      "Big": 2932,
      "Fre": 2933,
      "delivered": 2934,
      "tortill": 2935,
      "seasoned": 2936,
      "likely": 2937,
      "icure": 2938,
      "Seriously": 2939,
      "ule": 2940,
      "nIn": 2941,
      "Japanese": 2942,
      "ee": 2943,
      "actual": 2944,
      "quiet": 2945,
      "throughout": 2946,
      "curry": 2947,
      "opening": 2948,
      "Mont": 2949,
      "vegas": 2950,
      "Micro": 2951,
      "Strip": 2952,
      "AF": 2953,
      "nia": 2954,
      "Only": 2955,
      "checking": 2956,
      "healthy": 2957,
      "Pizza": 2958,
      "gro": 2959,
      "willing": 2960,
      "cand": 2961,
      "general": 2962,
      "shower": 2963,
      "smooth": 2964,
      "IC": 2965,
      "six": 2966,
      "whel": 2967,
      "anymore": 2968,
      "tonight": 2969,
      "Ho": 2970,
      "asty": 2971,
      "workers": 2972,
      "diffic": 2973,
      "Su": 2974,
      "final": 2975,
      "draw": 2976,
      "wrap": 2977,
      "ism": 2978,
      "orge": 2979,
      "apple": 2980,
      "send": 2981,
      "flight": 2982,
      "core": 2983,
      "negative": 2984,
      "dered": 2985,
      "nOur": 2986,
      "nAfter": 2987,
      "moment": 2988,
      "machine": 2989,
      "Ju": 2990,
      "ublic": 2991,
      "High": 2992,
      "difficult": 2993,
      "disgusting": 2994,
      "colle": 2995,
      "repe": 2996,
      "ounge": 2997,
      "ari": 2998,
      "venue": 2999,
      "bing": 3000,
      "comment": 3001,
      "Plus": 3002,
      "Europe": 3003,
      "chili": 3004,
      "ka": 3005,
      "summer": 3006,
      "Kore": 3007,
      "chees": 3008,
      "Of": 3009,
      "male": 3010,
      "attempt": 3011,
      "rist": 3012,
      "agree": 3013,
      ":/": 3014,
      "lotte": 3015,
      "90": 3016,
      "boo": 3017,
      "pour": 3018,
      "exception": 3019,
      "gives": 3020,
      "particular": 3021,
      "bell": 3022,
      "solid": 3023,
      "informed": 3024,
      "alco": 3025,
      "Pri": 3026,
      "ors": 3027,
      "000": 3028,
      "step": 3029,
      "Hol": 3030,
      "Came": 3031,
      "drop": 3032,
      "wedding": 3033,
      "fly": 3034,
      "fornia": 3035,
      "blood": 3036,
      "\\\"\",": 3037,
      "reservations": 3038,
      "insur": 3039,
      "ala": 3040,
      "fab": 3041,
      "nAnd": 3042,
      "ctive": 3043,
      "sex": 3044,
      "oni": 3045,
      "living": 3046,
      "ager": 3047,
      "cocktail": 3048,
      "irm": 3049,
      "fing": 3050,
      "cele": 3051,
      "yn": 3052,
      "__": 3053,
      "BU": 3054,
      "anim": 3055,
      "agreed": 3056,
      "lovely": 3057,
      "picture": 3058,
      "booked": 3059,
      "cleaning": 3060,
      "multiple": 3061,
      "era": 3062,
      "figured": 3063,
      "slice": 3064,
      "balls": 3065,
      "inks": 3066,
      "baby": 3067,
      "nF": 3068,
      "grand": 3069,
      "hip": 3070,
      "San": 3071,
      "ches": 3072,
      "hoping": 3073,
      "prior": 3074,
      "Mad": 3075,
      "access": 3076,
      "thanks": 3077,
      "Cheese": 3078,
      "themselves": 3079,
      "incredibly": 3080,
      "sister": 3081,
      "Wow": 3082,
      "Everyone": 3083,
      "figure": 3084,
      "gym": 3085,
      "conversation": 3086,
      "ppers": 3087,
      "smaller": 3088,
      "compared": 3089,
      "effor": 3090,
      "atic": 3091,
      "eless": 3092,
      "Charlotte": 3093,
      ";/": 3094,
      "iter": 3095,
      "Wal": 3096,
      "afford": 3097,
      "feet": 3098,
      "tar": 3099,
      "girlfriend": 3100,
      "cheaper": 3101,
      "chew": 3102,
      "outdoor": 3103,
      "spect": 3104,
      "soggy": 3105,
      "soci": 3106,
      "lived": 3107,
      "Brit": 3108,
      "ns": 3109,
      "lu": 3110,
      "rot": 3111,
      "hic": 3112,
      "arm": 3113,
      "----": 3114,
      "Burger": 3115,
      "fet": 3116,
      "hadn": 3117,
      "hotels": 3118,
      "fell": 3119,
      "cashier": 3120,
      "upgr": 3121,
      "celebr": 3122,
      "tickets": 3123,
      "normally": 3124,
      "email": 3125,
      "bon": 3126,
      "Sha": 3127,
      "carry": 3128,
      "ama": 3129,
      "press": 3130,
      "sports": 3131,
      "comput": 3132,
      "cep": 3133,
      "satisfied": 3134,
      "Har": 3135,
      "stuffed": 3136,
      "truck": 3137,
      "vol": 3138,
      "Sus": 3139,
      "shared": 3140,
      "yst": 3141,
      "Mi": 3142,
      "YOU": 3143,
      "velo": 3144,
      "nBut": 3145,
      "audi": 3146,
      "watched": 3147,
      "entr": 3148,
      "igno": 3149,
      "points": 3150,
      "pictures": 3151,
      "Buff": 3152,
      "n2": 3153,
      "paren": 3154,
      "respect": 3155,
      "folks": 3156,
      "Hor": 3157,
      "ives": 3158,
      "35": 3159,
      "Pitt": 3160,
      "print": 3161,
      "biggest": 3162,
      "smoke": 3163,
      "acho": 3164,
      "95": 3165,
      "contain": 3166,
      "sauces": 3167,
      "shit": 3168,
      "Need": 3169,
      "french": 3170,
      "song": 3171,
      "shir": 3172,
      "aven": 3173,
      "sucks": 3174,
      "Get": 3175,
      "mini": 3176,
      "prime": 3177,
      "ric": 3178,
      "Would": 3179,
      "Ad": 3180,
      "Over": 3181,
      "experiences": 3182,
      "yog": 3183,
      "descri": 3184,
      "giant": 3185,
      "basic": 3186,
      "heavy": 3187,
      "important": 3188,
      "SE": 3189,
      "parts": 3190,
      "court": 3191,
      "bars": 3192,
      "World": 3193,
      "La": 3194,
      "cam": 3195,
      "def": 3196,
      "fancy": 3197,
      "17": 3198,
      "nAll": 3199,
      "Ma": 3200,
      "sas": 3201,
      "nd": 3202,
      "lives": 3203,
      "ulous": 3204,
      "bott": 3205,
      "elev": 3206,
      "ills": 3207,
      "skin": 3208,
      "joke": 3209,
      "mushrooms": 3210,
      "earlier": 3211,
      "dem": 3212,
      "ury": 3213,
      "gift": 3214,
      "somewhat": 3215,
      "lin": 3216,
      "guac": 3217,
      "indust": 3218,
      "setting": 3219,
      "locations": 3220,
      "cat": 3221,
      "compliment": 3222,
      "appeared": 3223,
      "didnt": 3224,
      "advert": 3225,
      "yed": 3226,
      "craving": 3227,
      "thru": 3228,
      "ched": 3229,
      "doubt": 3230,
      "vibe": 3231,
      "wants": 3232,
      "catch": 3233,
      "agio": 3234,
      "smile": 3235,
      "ered": 3236,
      "wide": 3237,
      "sized": 3238,
      "melt": 3239,
      "outstanding": 3240,
      "mes": 3241,
      "realized": 3242,
      "ecut": 3243,
      "purchased": 3244,
      "Microsoft": 3245,
      "remain": 3246,
      "regul": 3247,
      "California": 3248,
      "appreciate": 3249,
      "damn": 3250,
      "amy": 3251,
      "Again": 3252,
      "keeping": 3253,
      "slices": 3254,
      "stuck": 3255,
      "amo": 3256,
      "broken": 3257,
      "ency": 3258,
      "htt": 3259,
      "://": 3260,
      "Min": 3261,
      "famili": 3262,
      "trust": 3263,
      "pancakes": 3264,
      "stock": 3265,
      "respon": 3266,
      "stage": 3267,
      "popular": 3268,
      "gle": 3269,
      "DE": 3270,
      "n1": 3271,
      "upid": 3272,
      "www": 3273,
      "perhaps": 3274,
      "Super": 3275,
      "ague": 3276,
      "computer": 3277,
      "dough": 3278,
      "generous": 3279,
      "older": 3280,
      "inves": 3281,
      "pal": 3282,
      "necess": 3283,
      "feat": 3284,
      "GO": 3285,
      "Ariz": 3286,
      "trou": 3287,
      "crunch": 3288,
      "lat": 3289,
      "Mark": 3290,
      "mail": 3291,
      "imagine": 3292,
      "China": 3293,
      "drinking": 3294,
      "http": 3295,
      "announ": 3296,
      "texture": 3297,
      "west": 3298,
      "discount": 3299,
      "bb": 3300,
      "words": 3301,
      "dated": 3302,
      "Got": 3303,
      "replace": 3304,
      "continue": 3305,
      "tons": 3306,
      "Another": 3307,
      "Park": 3308,
      "sburgh": 3309,
      "brand": 3310,
      "traditional": 3311,
      "cording": 3312,
      "thern": 3313,
      "dig": 3314,
      "dropped": 3315,
      "Stre": 3316,
      "Pres": 3317,
      "grocer": 3318,
      "nment": 3319,
      "pizz": 3320,
      "const": 3321,
      "realize": 3322,
      "fixed": 3323,
      "icient": 3324,
      "United": 3325,
      "Anyway": 3326,
      "Her": 3327,
      "ALL": 3328,
      "boring": 3329,
      "incredible": 3330,
      "spoke": 3331,
      "provide": 3332,
      "walls": 3333,
      "thes": 3334,
      "juice": 3335,
      "lamb": 3336,
      "bis": 3337,
      "shops": 3338,
      "register": 3339,
      "Arizona": 3340,
      "everywhere": 3341,
      "scenes": 3342,
      "IM": 3343,
      "soda": 3344,
      "classic": 3345,
      "conne": 3346,
      "viron": 3347,
      "His": 3348,
      "pleased": 3349,
      "Chic": 3350,
      "annoying": 3351,
      "ladies": 3352,
      "Ke": 3353,
      "?)": 3354,
      "lacking": 3355,
      "information": 3356,
      "fault": 3357,
      "Ger": 3358,
      "following": 3359,
      "additional": 3360,
      "sleep": 3361,
      "City": 3362,
      "mode": 3363,
      "batter": 3364,
      "iling": 3365,
      "interested": 3366,
      "vegetables": 3367,
      "director": 3368,
      "bri": 3369,
      "offers": 3370,
      "video": 3371,
      "Cha": 3372,
      "proceed": 3373,
      "contro": 3374,
      "whether": 3375,
      "lets": 3376,
      "lounge": 3377,
      "mood": 3378,
      "below": 3379,
      "serious": 3380,
      "condition": 3381,
      "hur": 3382,
      "unfortunately": 3383,
      "fection": 3384,
      "calls": 3385,
      "inc": 3386,
      "decide": 3387,
      "dim": 3388,
      "Aw": 3389,
      "plant": 3390,
      "impressive": 3391,
      "une": 3392,
      "refund": 3393,
      "response": 3394,
      "ution": 3395,
      "arrive": 3396,
      "crack": 3397,
      "Pittsburgh": 3398,
      "stupid": 3399,
      "stated": 3400,
      "usion": 3401,
      "writing": 3402,
      "theater": 3403,
      "passed": 3404,
      "dip": 3405,
      "veggie": 3406,
      "duck": 3407,
      "hole": 3408,
      "bes": 3409,
      "calling": 3410,
      "overcooked": 3411,
      "Christ": 3412,
      "nicely": 3413,
      "sugar": 3414,
      "****": 3415,
      "driving": 3416,
      "bling": 3417,
      "raw": 3418,
      ".,": 3419,
      "GM": 3420,
      "zy": 3421,
      "ream": 3422,
      "nNow": 3423,
      "tomatoes": 3424,
      "init": 3425,
      "bean": 3426,
      "vironment": 3427,
      "ering": 3428,
      "chop": 3429,
      "buying": 3430,
      "rom": 3431,
      "70": 3432,
      "Col": 3433,
      "cleaned": 3434,
      "appear": 3435,
      "har": 3436,
      "nM": 3437,
      "insurance": 3438,
      "cir": 3439,
      "WAY": 3440,
      "yeah": 3441,
      "presentation": 3442,
      "aki": 3443,
      "turkey": 3444,
      "missed": 3445,
      "vision": 3446,
      "onto": 3447,
      "series": 3448,
      "himself": 3449,
      "gn": 3450,
      "jud": 3451,
      "fles": 3452,
      "elevator": 3453,
      "Bellagio": 3454,
      "ticket": 3455,
      "chat": 3456,
      "Chicago": 3457,
      "strange": 3458,
      "ONE": 3459,
      "Aust": 3460,
      "bum": 3461,
      "West": 3462,
      "bigger": 3463,
      "bartenders": 3464,
      "cart": 3465,
      "decis": 3466,
      "partment": 3467,
      "???": 3468,
      "desert": 3469,
      "legs": 3470,
      "owned": 3471,
      "develo": 3472,
      "spinach": 3473,
      "mbers": 3474,
      "Air": 3475,
      "PM": 3476,
      "tub": 3477,
      "spending": 3478,
      "patient": 3479,
      "mal": 3480,
      "Corp": 3481,
      "doors": 3482,
      "upset": 3483,
      "Tom": 3484,
      "cop": 3485,
      "receive": 3486,
      "homemade": 3487,
      "Cafe": 3488,
      "safe": 3489,
      "cocktails": 3490,
      "tells": 3491,
      "listen": 3492,
      "actors": 3493,
      "und": 3494,
      "conom": 3495,
      "fli": 3496,
      "spa": 3497,
      "stomach": 3498,
      "ros": 3499,
      "scar": 3500,
      "loves": 3501,
      "North": 3502,
      "kee": 3503,
      "execut": 3504,
      "anch": 3505,
      "broth": 3506,
      "chill": 3507,
      "accep": 3508,
      "ames": 3509,
      "Rock": 3510,
      "vet": 3511,
      "itten": 3512,
      "difference": 3513,
      "surprising": 3514,
      "People": 3515,
      "orange": 3516,
      "Tac": 3517,
      "nFirst": 3518,
      "gon": 3519,
      "istic": 3520,
      "timate": 3521,
      "GH": 3522,
      "field": 3523,
      "BLE": 3524,
      "held": 3525,
      "bites": 3526,
      "refer": 3527,
      "champ": 3528,
      "English": 3529,
      "pa": 3530,
      "erry": 3531,
      "finding": 3532,
      "parents": 3533,
      "Last": 3534,
      "performance": 3535,
      "detail": 3536,
      "ben": 3537,
      "interior": 3538,
      "shoes": 3539,
      "government": 3540,
      "Im": 3541,
      "polic": 3542,
      "sale": 3543,
      "corpor": 3544,
      "putting": 3545,
      "meats": 3546,
      "Staff": 3547,
      "sci": 3548,
      "knowledgeable": 3549,
      "rain": 3550,
      "Sa": 3551,
      "spice": 3552,
      "ynn": 3553,
      "ues": 3554,
      "environment": 3555,
      "!\\\"\"": 3556,
      "lower": 3557,
      "gold": 3558,
      "creamy": 3559,
      "percent": 3560,
      "killed": 3561,
      "teen": 3562,
      "overly": 3563,
      "brother": 3564,
      "patrons": 3565,
      "outs": 3566,
      "assist": 3567,
      "clothes": 3568,
      "menus": 3569,
      "Starbucks": 3570,
      "success": 3571,
      "scale": 3572,
      "frust": 3573,
      "tail": 3574,
      "cafe": 3575,
      "ubby": 3576,
      "Try": 3577,
      "ium": 3578,
      "former": 3579,
      "regard": 3580,
      "ipped": 3581,
      "bone": 3582,
      "yell": 3583,
      "nD": 3584,
      "beginning": 3585,
      "Here": 3586,
      "ners": 3587,
      "nap": 3588,
      "record": 3589,
      "Res": 3590,
      "shell": 3591,
      "priv": 3592,
      "tasteless": 3593,
      "allowed": 3594,
      "Street": 3595,
      "icularly": 3596,
      "75": 3597,
      "rub": 3598,
      "spring": 3599,
      "separate": 3600,
      "cars": 3601,
      "budget": 3602,
      "scall": 3603,
      "enn": 3604,
      "steam": 3605,
      "Montreal": 3606,
      "nYou": 3607,
      "ERE": 3608,
      "focus": 3609,
      "weak": 3610,
      "ocado": 3611,
      "Grand": 3612,
      "illy": 3613,
      "El": 3614,
      "casual": 3615,
      "lywood": 3616,
      "dest": 3617,
      "Steak": 3618,
      "shame": 3619,
      "het": 3620,
      "amari": 3621,
      "polit": 3622,
      "wards": 3623,
      "sen": 3624,
      "dar": 3625,
      "ctr": 3626,
      "among": 3627,
      "costs": 3628,
      "nasty": 3629,
      "rad": 3630,
      "hid": 3631,
      "further": 3632,
      "amole": 3633,
      "topped": 3634,
      "juicy": 3635,
      "Mr": 3636,
      "bage": 3637,
      "ises": 3638,
      "closer": 3639,
      "Cas": 3640,
      "cooking": 3641,
      "plastic": 3642,
      "arr": 3643,
      "RO": 3644,
      "pas": 3645,
      "driver": 3646,
      "otherwise": 3647,
      "pizzas": 3648,
      "Caes": 3649,
      "effort": 3650,
      "exist": 3651,
      "miles": 3652,
      "fabulous": 3653,
      "Med": 3654,
      "foods": 3655,
      "asp": 3656,
      "towel": 3657,
      "invol": 3658,
      "fans": 3659,
      "cow": 3660,
      "jack": 3661,
      "iol": 3662,
      "dad": 3663,
      "tele": 3664,
      "feels": 3665,
      "spots": 3666,
      "tired": 3667,
      "milit": 3668,
      "bask": 3669,
      "alcohol": 3670,
      "throw": 3671,
      "pair": 3672,
      "NEW": 3673,
      "nearby": 3674,
      "base": 3675,
      "21": 3676,
      "ik": 3677,
      "tian": 3678,
      "tire": 3679,
      "shouldn": 3680,
      "achos": 3681,
      "oz": 3682,
      "Too": 3683,
      "concept": 3684,
      "dent": 3685,
      "acknow": 3686,
      "hall": 3687,
      "2nd": 3688,
      "Which": 3689,
      "azz": 3690,
      "admit": 3691,
      "!!\\": 3692,
      "particularly": 3693,
      "Sushi": 3694,
      "EVER": 3695,
      "peppers": 3696,
      "bright": 3697,
      "ication": 3698,
      "happens": 3699,
      "nAlso": 3700,
      "wai": 3701,
      "requested": 3702,
      "kin": 3703,
      "tit": 3704,
      "suggested": 3705,
      "provided": 3706,
      "rem": 3707,
      "Ge": 3708,
      "talked": 3709,
      "effect": 3710,
      "Chris": 3711,
      "cri": 3712,
      "lobby": 3713,
      "visits": 3714,
      "possibly": 3715,
      "Yum": 3716,
      "Gold": 3717,
      "machines": 3718,
      "erk": 3719,
      "UP": 3720,
      "Because": 3721,
      "track": 3722,
      "Bu": 3723,
      "buffets": 3724,
      "mission": 3725,
      "anti": 3726,
      "nut": 3727,
      "appeal": 3728,
      "delight": 3729,
      "various": 3730,
      "news": 3731,
      "rand": 3732,
      "hosp": 3733,
      "vehic": 3734,
      "Russ": 3735,
      "frequent": 3736,
      "areas": 3737,
      "industry": 3738,
      "Internet": 3739,
      "aa": 3740,
      "ston": 3741,
      "wanting": 3742,
      "ctions": 3743,
      "Groupon": 3744,
      "dating": 3745,
      "Tem": 3746,
      "Day": 3747,
      "according": 3748,
      "ilt": 3749,
      "n3": 3750,
      "Salad": 3751,
      "notch": 3752,
      "crisp": 3753,
      "nFood": 3754,
      "cted": 3755,
      "tries": 3756,
      "members": 3757,
      "suck": 3758,
      "iders": 3759,
      "photos": 3760,
      "Still": 3761,
      "hr": 3762,
      "refused": 3763,
      "Green": 3764,
      "Exce": 3765,
      "gun": 3766,
      "hash": 3767,
      "switch": 3768,
      "Dav": 3769,
      "filet": 3770,
      "udi": 3771,
      "gue": 3772,
      "Dan": 3773,
      "Cir": 3774,
      "lucky": 3775,
      "CO": 3776,
      "kno": 3777,
      "nNot": 3778,
      "roasted": 3779,
      "ALLY": 3780,
      "minim": 3781,
      "complaints": 3782,
      "Rest": 3783,
      "Korean": 3784,
      "cret": 3785,
      "WI": 3786,
      "uses": 3787,
      "spac": 3788,
      "tware": 3789,
      "ashion": 3790,
      "WH": 3791,
      "......": 3792,
      "charges": 3793,
      "suff": 3794,
      "father": 3795,
      "Fo": 3796,
      "hill": 3797,
      "ker": 3798,
      "sem": 3799,
      "suite": 3800,
      "Worst": 3801,
      "alled": 3802,
      "las": 3803,
      "furn": 3804,
      "entrance": 3805,
      "rat": 3806,
      "grocery": 3807,
      "eno": 3808,
      "bomb": 3809,
      "bert": 3810,
      "Bay": 3811,
      "Grill": 3812,
      "econom": 3813,
      "arden": 3814,
      "More": 3815,
      "lean": 3816,
      "$$": 3817,
      "sugges": 3818,
      "tal": 3819,
      "Second": 3820,
      "udes": 3821,
      "polite": 3822,
      "began": 3823,
      "intro": 3824,
      "shake": 3825,
      "ability": 3826,
      "maker": 3827,
      "public": 3828,
      "Wynn": 3829,
      "progr": 3830,
      "Look": 3831,
      "rant": 3832,
      "lan": 3833,
      "smoking": 3834,
      "property": 3835,
      "Check": 3836,
      "mashed": 3837,
      "Apple": 3838,
      "Fe": 3839,
      "random": 3840,
      "gravy": 3841,
      "swi": 3842,
      "allen": 3843,
      "reli": 3844,
      "Needless": 3845,
      "accept": 3846,
      "uled": 3847,
      "excuse": 3848,
      "death": 3849,
      "ron": 3850,
      "written": 3851,
      "welcome": 3852,
      "plans": 3853,
      "ingly": 3854,
      "pub": 3855,
      "Joe": 3856,
      "President": 3857,
      "favorites": 3858,
      "generally": 3859,
      "defin": 3860,
      "suit": 3861,
      "Mart": 3862,
      "izes": 3863,
      "police": 3864,
      "Jack": 3865,
      "crit": 3866,
      "helping": 3867,
      "AFP": 3868,
      "u00e0": 3869,
      "college": 3870,
      "rings": 3871,
      "cards": 3872,
      "Sorry": 3873,
      "lol": 3874,
      "Excellent": 3875,
      "yal": 3876,
      "acceptable": 3877,
      "drove": 3878,
      "avocado": 3879,
      "history": 3880,
      "towards": 3881,
      "heaven": 3882,
      "nTo": 3883,
      "burnt": 3884,
      "omelet": 3885,
      "wal": 3886,
      "account": 3887,
      "dev": 3888,
      "opted": 3889,
      "Spe": 3890,
      "duce": 3891,
      "bags": 3892,
      "subst": 3893,
      "retty": 3894,
      "u00e8": 3895,
      "larger": 3896,
      "travel": 3897,
      "bak": 3898,
      "combination": 3899,
      "Pa": 3900,
      "trash": 3901,
      "human": 3902,
      "ials": 3903,
      "camp": 3904,
      "nWhat": 3905,
      "fare": 3906,
      "became": 3907,
      "enchil": 3908,
      "natur": 3909,
      "Je": 3910,
      "changes": 3911,
      "valley": 3912,
      "guacamole": 3913,
      "starts": 3914,
      "ivers": 3915,
      "isine": 3916,
      "mir": 3917,
      "bris": 3918,
      "vegan": 3919,
      "Hollywood": 3920,
      "types": 3921,
      "Instead": 3922,
      "plays": 3923,
      "iture": 3924,
      "wear": 3925,
      "Beef": 3926,
      "receipt": 3927,
      "Christmas": 3928,
      "voice": 3929,
      "spir": 3930,
      "wow": 3931,
      "wan": 3932,
      "improve": 3933,
      "cel": 3934,
      "HU": 3935,
      "repair": 3936,
      "dge": 3937,
      "efficient": 3938,
      "lose": 3939,
      "Micha": 3940,
      "sli": 3941,
      "hardly": 3942,
      "leaves": 3943,
      "vin": 3944,
      "boun": 3945,
      "Sam": 3946,
      "dine": 3947,
      "UST": 3948,
      "OOD": 3949,
      "famous": 3950,
      "spectac": 3951,
      "control": 3952,
      "ORK": 3953,
      "cau": 3954,
      ":(": 3955,
      "example": 3956,
      "incre": 3957,
      "training": 3958,
      "Hotel": 3959,
      "ito": 3960,
      "named": 3961,
      "chewy": 3962,
      "uncomfortable": 3963,
      "Old": 3964,
      "address": 3965,
      "Donal": 3966,
      "meeting": 3967,
      "role": 3968,
      "occasion": 3969,
      "thy": 3970,
      "viol": 3971,
      "Pet": 3972,
      "appl": 3973,
      "info": 3974,
      "goodness": 3975,
      "cers": 3976,
      "Horrible": 3977,
      "Gi": 3978,
      "policy": 3979,
      "sequ": 3980,
      "Ba": 3981,
      "oups": 3982,
      "oop": 3983,
      "offering": 3984,
      "zero": 3985,
      "basket": 3986,
      "Black": 3987,
      "refresh": 3988,
      "decl": 3989,
      "greens": 3990,
      "Ordered": 3991,
      "CK": 3992,
      "mel": 3993,
      "ians": 3994,
      "brew": 3995,
      "shots": 3996,
      "reasonably": 3997,
      "decision": 3998,
      "liqu": 3999,
      "pean": 4000,
      "eder": 4001,
      "ille": 4002,
      "ignored": 4003,
      "mot": 4004,
      "via": 4005,
      "eth": 4006,
      "managed": 4007,
      "flu": 4008,
      "compar": 4009,
      "iso": 4010,
      "corporate": 4011,
      "noodle": 4012,
      "replaced": 4013,
      "closing": 4014,
      "consistent": 4015,
      "properly": 4016,
      "Restaurant": 4017,
      "thetic": 4018,
      "Being": 4019,
      "organized": 4020,
      "dancing": 4021,
      "gem": 4022,
      "omen": 4023,
      "overwhel": 4024,
      "attend": 4025,
      "handle": 4026,
      "steaks": 4027,
      "dia": 4028,
      "enjoyable": 4029,
      "threw": 4030,
      "contract": 4031,
      "tofu": 4032,
      "bottles": 4033,
      "moist": 4034,
      "bringing": 4035,
      "exper": 4036,
      "comedy": 4037,
      "ordin": 4038,
      "refills": 4039,
      "quote": 4040,
      "pricing": 4041,
      "acc": 4042,
      "clubs": 4043,
      "LV": 4044,
      "rele": 4045,
      "loss": 4046,
      "gentle": 4047,
      "nel": 4048,
      "package": 4049,
      "actor": 4050,
      "active": 4051,
      "handed": 4052,
      "yogurt": 4053,
      "Valley": 4054,
      "Michael": 4055,
      "ung": 4056,
      "cant": 4057,
      "continued": 4058,
      "ief": 4059,
      "starting": 4060,
      "select": 4061,
      "tray": 4062,
      "itted": 4063,
      "promptly": 4064,
      "ramen": 4065,
      "ata": 4066,
      "ette": 4067,
      "perfection": 4068,
      "Buffet": 4069,
      "izing": 4070,
      "lighting": 4071,
      "cuts": 4072,
      "rass": 4073,
      "aded": 4074,
      "waitresses": 4075,
      "crappy": 4076,
      "horror": 4077,
      "Are": 4078,
      "shi": 4079,
      "Tex": 4080,
      "cul": 4081,
      "nOne": 4082,
      "companies": 4083,
      "Pan": 4084,
      "llar": 4085,
      "rd": 4086,
      "British": 4087,
      "icked": 4088,
      "TA": 4089,
      "ietnam": 4090,
      "poorly": 4091,
      "cro": 4092,
      "grow": 4093,
      "polish": 4094,
      "feed": 4095,
      "Pretty": 4096,
      "nR": 4097,
      "Off": 4098,
      "nachos": 4099,
      "UM": 4100,
      "Pat": 4101,
      "European": 4102,
      "tart": 4103,
      "DJ": 4104,
      "research": 4105,
      "tend": 4106,
      "ico": 4107,
      "conut": 4108,
      "personally": 4109,
      "vine": 4110,
      "ify": 4111,
      "fountain": 4112,
      "daily": 4113,
      "Upon": 4114,
      "adas": 4115,
      "Egg": 4116,
      "berries": 4117,
      "deals": 4118,
      "uten": 4119,
      "awk": 4120,
      "Net": 4121,
      "fees": 4122,
      "techno": 4123,
      "Sad": 4124,
      "ysters": 4125,
      "treatment": 4126,
      "ified": 4127,
      "IP": 4128,
      "CA": 4129,
      "pound": 4130,
      "obvious": 4131,
      "apologized": 4132,
      "thorough": 4133,
      "mad": 4134,
      "prote": 4135,
      "ME": 4136,
      "Won": 4137,
      "America": 4138,
      "gonna": 4139,
      "impression": 4140,
      "dom": 4141,
      "aller": 4142,
      "ished": 4143,
      "DV": 4144,
      "flag": 4145,
      "Blue": 4146,
      "meant": 4147,
      "surround": 4148,
      "THIS": 4149,
      "hey": 4150,
      "quee": 4151,
      "iding": 4152,
      "selections": 4153,
      "abor": 4154,
      "private": 4155,
      "failed": 4156,
      "sucked": 4157,
      "pedicure": 4158,
      "hopes": 4159,
      "posted": 4160,
      "rough": 4161,
      "turns": 4162,
      "block": 4163,
      "honey": 4164,
      "potle": 4165,
      "affordable": 4166,
      "WO": 4167,
      "rav": 4168,
      "reasons": 4169,
      "cuisine": 4170,
      "lf": 4171,
      "Awesome": 4172,
      "hanging": 4173,
      "reach": 4174,
      "tiv": 4175,
      "speed": 4176,
      "holid": 4177,
      "Lu": 4178,
      "thus": 4179,
      "Cup": 4180,
      "buck": 4181,
      "groups": 4182,
      "Den": 4183,
      "nings": 4184,
      "Stay": 4185,
      "message": 4186,
      "ours": 4187,
      "ains": 4188,
      "relaxing": 4189,
      "Please": 4190,
      "zed": 4191,
      "hidden": 4192,
      "national": 4193,
      "tv": 4194,
      "pitch": 4195,
      "Greek": 4196,
      "reminded": 4197,
      "rolled": 4198,
      "spectacular": 4199,
      "include": 4200,
      "ria": 4201,
      "pad": 4202,
      "ining": 4203,
      "ais": 4204,
      "calamari": 4205,
      "audience": 4206,
      "Bad": 4207,
      "potential": 4208,
      "sounds": 4209,
      "dozen": 4210,
      "icated": 4211,
      "trouble": 4212,
      "suppose": 4213,
      "!!!\\": 4214,
      "ription": 4215,
      "Happy": 4216,
      "aters": 4217,
      "smelled": 4218,
      "Have": 4219,
      "ences": 4220,
      "express": 4221,
      "mushroom": 4222,
      "forced": 4223,
      "tren": 4224,
      "unprofessional": 4225,
      "beds": 4226,
      "embar": 4227,
      "software": 4228,
      "Au": 4229,
      "sting": 4230,
      "wrapped": 4231,
      "Ram": 4232,
      "opport": 4233,
      "War": 4234,
      "dressed": 4235,
      "department": 4236,
      "necessary": 4237,
      ",\\\"\"": 4238,
      "Bas": 4239,
      "advice": 4240,
      "ashing": 4241,
      "sets": 4242,
      "alright": 4243,
      "scream": 4244,
      "respons": 4245,
      "Fran": 4246,
      "showing": 4247,
      "opportun": 4248,
      "relative": 4249,
      "Isra": 4250,
      "Sep": 4251,
      "WAS": 4252,
      "learn": 4253,
      "Bush": 4254,
      "welcoming": 4255,
      "advis": 4256,
      "complimentary": 4257,
      "vacation": 4258,
      "confused": 4259,
      "announced": 4260,
      "bul": 4261,
      "2004": 4262,
      "schedule": 4263,
      "coup": 4264,
      "weather": 4265,
      "bid": 4266,
      "Mus": 4267,
      "cig": 4268,
      "affles": 4269,
      "Yeah": 4270,
      "MGM": 4271,
      "unt": 4272,
      "client": 4273,
      "presented": 4274,
      "scri": 4275,
      "sticks": 4276,
      "rushed": 4277,
      "mex": 4278,
      "common": 4279,
      "22": 4280,
      "Roll": 4281,
      "sampl": 4282,
      "Rep": 4283,
      "furniture": 4284,
      "God": 4285,
      "proceeded": 4286,
      "program": 4287,
      "tortilla": 4288,
      "crew": 4289,
      "reported": 4290,
      "EX": 4291,
      "regre": 4292,
      "King": 4293,
      "Madison": 4294,
      "awhile": 4295,
      "hon": 4296,
      "nuts": 4297,
      "sample": 4298,
      "believ": 4299,
      "DVD": 4300,
      "awkward": 4301,
      "Amazing": 4302,
      "instru": 4303,
      "Tot": 4304,
      "inch": 4305,
      "stale": 4306,
      "nAt": 4307,
      "waiters": 4308,
      "Prices": 4309,
      "thai": 4310,
      "rental": 4311,
      "knowing": 4312,
      "Always": 4313,
      "challen": 4314,
      "Vene": 4315,
      "discus": 4316,
      "YORK": 4317,
      "billion": 4318,
      "Hu": 4319,
      "orgeous": 4320,
      "electr": 4321,
      "demand": 4322,
      "Tempe": 4323,
      "Luck": 4324,
      "reception": 4325,
      "aza": 4326,
      "Sch": 4327,
      "ioli": 4328,
      "seconds": 4329,
      "Cal": 4330,
      "rac": 4331,
      "south": 4332,
      "results": 4333,
      "piss": 4334,
      "margarita": 4335,
      "himi": 4336,
      "update": 4337,
      "IR": 4338,
      "attack": 4339,
      "cupcakes": 4340,
      "Bet": 4341,
      "carpet": 4342,
      "comfort": 4343,
      "brisket": 4344,
      "LD": 4345,
      "target": 4346,
      "OF": 4347,
      "Str": 4348,
      "ourselves": 4349,
      "marin": 4350,
      "HUGE": 4351,
      "weight": 4352,
      "fry": 4353,
      "cups": 4354,
      "ially": 4355,
      "rious": 4356,
      "valet": 4357,
      "windows": 4358,
      "Spr": 4359,
      "football": 4360,
      "Where": 4361,
      "terri": 4362,
      "TER": 4363,
      "ANY": 4364,
      "headed": 4365,
      "female": 4366,
      "acted": 4367,
      "ivid": 4368,
      "Paris": 4369,
      "accommodating": 4370,
      "sav": 4371,
      "chip": 4372,
      "period": 4373,
      "talent": 4374,
      "East": 4375,
      "nov": 4376,
      "AW": 4377,
      "Friend": 4378,
      "VIP": 4379,
      "events": 4380,
      "rage": 4381,
      "Ear": 4382,
      "noise": 4383,
      "Di": 4384,
      "eli": 4385,
      "internet": 4386,
      "seasoning": 4387,
      "skip": 4388,
      "ura": 4389,
      "vehicle": 4390,
      "rout": 4391,
      "inos": 4392,
      "constantly": 4393,
      "theme": 4394,
      "oke": 4395,
      "Cho": 4396,
      "tu": 4397,
      "ocked": 4398,
      "Ti": 4399,
      "temper": 4400,
      "respond": 4401,
      "Isl": 4402,
      "Lots": 4403,
      "oogle": 4404,
      "affle": 4405,
      "scallops": 4406,
      "Vietnam": 4407,
      "aware": 4408,
      "Open": 4409,
      "anda": 4410,
      "carame": 4411,
      "reco": 4412,
      "nOh": 4413,
      "wit": 4414,
      "bles": 4415,
      "ya": 4416,
      "jum": 4417,
      "Your": 4418,
      "ano": 4419,
      "aming": 4420,
      "cross": 4421,
      "individ": 4422,
      "attr": 4423,
      ".\\\"\"\\": 4424,
      "estern": 4425,
      "mile": 4426,
      "craft": 4427,
      "repl": 4428,
      "aging": 4429,
      "threat": 4430,
      "smoked": 4431,
      "wax": 4432,
      "pure": 4433,
      "serves": 4434,
      "shad": 4435,
      "thrill": 4436,
      "ruined": 4437,
      "!!!!!": 4438,
      "compare": 4439,
      "hummus": 4440,
      "belly": 4441,
      "shocked": 4442,
      "yellow": 4443,
      "cil": 4444,
      "dried": 4445,
      "convenience": 4446,
      "learned": 4447,
      "cookies": 4448,
      "lacked": 4449,
      "largest": 4450,
      "fav": 4451,
      "OME": 4452,
      "crunchy": 4453,
      "entertaining": 4454,
      "flow": 4455,
      "selling": 4456,
      "hype": 4457,
      "gri": 4458,
      "melted": 4459,
      "annoyed": 4460,
      "oysters": 4461,
      "eventually": 4462,
      "Club": 4463,
      "andal": 4464,
      "icious": 4465,
      "ribly": 4466,
      "standards": 4467,
      "appropri": 4468,
      "script": 4469,
      "!).": 4470,
      "DON": 4471,
      "icks": 4472,
      "flavorless": 4473,
      "Fresh": 4474,
      "AG": 4475,
      "eria": 4476,
      "tight": 4477,
      "=\"": 4478,
      "Ed": 4479,
      "bathrooms": 4480,
      "biscu": 4481,
      "signs": 4482,
      "parties": 4483,
      "Cap": 4484,
      "llo": 4485,
      "bits": 4486,
      "meh": 4487,
      "Ta": 4488,
      "strawberry": 4489,
      "bbq": 4490,
      "phen": 4491,
      "cco": 4492,
      "sight": 4493,
      "books": 4494,
      "locals": 4495,
      "Angel": 4496,
      "SP": 4497,
      "answered": 4498,
      "rit": 4499,
      "anted": 4500,
      "ipment": 4501,
      "somehow": 4502,
      "sess": 4503,
      "yaki": 4504,
      "platter": 4505,
      "complex": 4506,
      "thats": 4507,
      "Hawai": 4508,
      "Okay": 4509,
      "surprisingly": 4510,
      "Gar": 4511,
      "coconut": 4512,
      "complained": 4513,
      "syrup": 4514,
      "gress": 4515,
      "ranch": 4516,
      "memorable": 4517,
      "warned": 4518,
      "wearing": 4519,
      "tag": 4520,
      "pup": 4521,
      "mob": 4522,
      "hom": 4523,
      "MO": 4524,
      "upgrade": 4525,
      "associ": 4526,
      "discovered": 4527,
      "mild": 4528,
      "Bre": 4529,
      "brow": 4530,
      "itive": 4531,
      "views": 4532,
      "gorgeous": 4533,
      "stocks": 4534,
      "microw": 4535,
      "1st": 4536,
      "istan": 4537,
      "unks": 4538,
      "regret": 4539,
      "acle": 4540,
      "names": 4541,
      "Bac": 4542,
      "god": 4543,
      "Prime": 4544,
      "upstairs": 4545,
      "weekends": 4546,
      "RIBLE": 4547,
      "........": 4548,
      "uine": 4549,
      "tips": 4550,
      "Absolute": 4551,
      "uffle": 4552,
      "mat": 4553,
      "lex": 4554,
      "McDonal": 4555,
      "caught": 4556,
      "biz": 4557,
      "BUT": 4558,
      "followed": 4559,
      "pointed": 4560,
      "familiar": 4561,
      "diner": 4562,
      "retail": 4563,
      "soooo": 4564,
      "nobody": 4565,
      "enjoying": 4566,
      "sens": 4567,
      "produce": 4568,
      "Fi": 4569,
      "THING": 4570,
      "hes": 4571,
      "cents": 4572,
      "gluten": 4573,
      "AZING": 4574,
      "bust": 4575,
      "void": 4576,
      "haha": 4577,
      "zel": 4578,
      "equipment": 4579,
      "Taco": 4580,
      "promot": 4581,
      "Ver": 4582,
      "seven": 4583,
      "broke": 4584,
      "neither": 4585,
      "signed": 4586,
      "planning": 4587,
      "oops": 4588,
      "Ham": 4589,
      "cheesy": 4590,
      "entertainment": 4591,
      "HA": 4592,
      "vanilla": 4593,
      "Apparently": 4594,
      "introdu": 4595,
      "race": 4596,
      "India": 4597,
      "mmmm": 4598,
      "refreshing": 4599,
      "delay": 4600,
      "classes": 4601,
      "pud": 4602,
      "ki": 4603,
      "recommendation": 4604,
      "appreciated": 4605,
      "grat": 4606,
      "apartment": 4607,
      "Sur": 4608,
      "gate": 4609,
      "3rd": 4610,
      "cozy": 4611,
      "mur": 4612,
      "concerned": 4613,
      "Sy": 4614,
      "mayo": 4615,
      "boys": 4616,
      "dies": 4617,
      "ffin": 4618,
      "distance": 4619,
      "fashion": 4620,
      "lap": 4621,
      "Terrible": 4622,
      "shirt": 4623,
      "natural": 4624,
      "iles": 4625,
      "Each": 4626,
      "Probably": 4627,
      "pink": 4628,
      "sliced": 4629,
      "Gl": 4630,
      "ula": 4631,
      "blah": 4632,
      "soy": 4633,
      "likes": 4634,
      "fake": 4635,
      "pressure": 4636,
      "Ir": 4637,
      "banana": 4638,
      "laid": 4639,
      "stylist": 4640,
      "TF": 4641,
      "sels": 4642,
      "Center": 4643,
      "dred": 4644,
      "rap": 4645,
      "sounded": 4646,
      "Quote": 4647,
      "nu": 4648,
      "Fried": 4649,
      "groupon": 4650,
      "tab": 4651,
      "asks": 4652,
      "lef": 4653,
      "BM": 4654,
      "hook": 4655,
      "Market": 4656,
      "cram": 4657,
      "specif": 4658,
      "antage": 4659,
      "title": 4660,
      "AMAZING": 4661,
      "HE": 4662,
      "advance": 4663,
      "hubby": 4664,
      "onestly": 4665,
      "lux": 4666,
      "result": 4667,
      "chin": 4668,
      "consistently": 4669,
      "soo": 4670,
      "David": 4671,
      "Place": 4672,
      "altern": 4673,
      "profit": 4674,
      "apology": 4675,
      "upscale": 4676,
      "opportunity": 4677,
      "leading": 4678,
      "ances": 4679,
      "listed": 4680,
      "utter": 4681,
      "Swe": 4682,
      "scheduled": 4683,
      "n4": 4684,
      "ference": 4685,
      "embarrass": 4686,
      "IL": 4687,
      "gum": 4688,
      "cult": 4689,
      "blow": 4690,
      "Didn": 4691,
      "Texas": 4692,
      "Caesar": 4693,
      "....\\": 4694,
      "ories": 4695,
      "explo": 4696,
      "Champ": 4697,
      "production": 4698,
      "Bob": 4699,
      "launch": 4700,
      "Loc": 4701,
      "Sure": 4702,
      "appears": 4703,
      "!!!!!!!!": 4704,
      "Chef": 4705,
      "judge": 4706,
      "erous": 4707,
      "saving": 4708,
      "pita": 4709,
      "ami": 4710,
      "insist": 4711,
      "dealer": 4712,
      "cinem": 4713,
      "ustom": 4714,
      "Tur": 4715,
      "idence": 4716,
      "expl": 4717,
      "36": 4718,
      "roast": 4719,
      "kinds": 4720,
      "facility": 4721,
      "lefto": 4722,
      "Room": 4723,
      "batt": 4724,
      "ils": 4725,
      "bike": 4726,
      "energy": 4727,
      "gelato": 4728,
      "wild": 4729,
      "KE": 4730,
      "describe": 4731,
      "kins": 4732,
      "aside": 4733,
      "floors": 4734,
      "oven": 4735,
      "position": 4736,
      "towels": 4737,
      "blast": 4738,
      "WOR": 4739,
      "zu": 4740,
      "affic": 4741,
      "Cos": 4742,
      "hundred": 4743,
      "edible": 4744,
      "lime": 4745,
      "master": 4746,
      "specific": 4747,
      "GRE": 4748,
      "toilet": 4749,
      "bagel": 4750,
      "episo": 4751,
      "udio": 4752,
      "manner": 4753,
      "Ko": 4754,
      "sashimi": 4755,
      "States": 4756,
      "Plan": 4757,
      "create": 4758,
      "correctly": 4759,
      "oured": 4760,
      "Today": 4761,
      "lymp": 4762,
      "picky": 4763,
      "technology": 4764,
      "terms": 4765,
      "Cent": 4766,
      "odka": 4767,
      "wet": 4768,
      "inde": 4769,
      "Wait": 4770,
      "anced": 4771,
      "arella": 4772,
      "players": 4773,
      "brings": 4774,
      "Took": 4775,
      "Bel": 4776,
      "ously": 4777,
      "social": 4778,
      "Mill": 4779,
      "promised": 4780,
      "Top": 4781,
      "hint": 4782,
      "firm": 4783,
      "impossible": 4784,
      "specially": 4785,
      "runs": 4786,
      "u00e9e": 4787,
      "nicer": 4788,
      "Way": 4789,
      "acy": 4790,
      "Absolutely": 4791,
      "specialty": 4792,
      "nThen": 4793,
      "cookie": 4794,
      "display": 4795,
      "Pad": 4796,
      "victory": 4797,
      "Bri": 4798,
      "Mid": 4799,
      "hearing": 4800,
      ":-": 4801,
      "election": 4802,
      "candy": 4803,
      "Ac": 4804,
      "kidding": 4805,
      "Google": 4806,
      "Ri": 4807,
      "rul": 4808,
      "aze": 4809,
      "direction": 4810,
      "dive": 4811,
      "leader": 4812,
      "una": 4813,
      "sliders": 4814,
      "Hard": 4815,
      "Jim": 4816,
      "nTheir": 4817,
      "Delicious": 4818,
      "Three": 4819,
      "romantic": 4820,
      "worker": 4821,
      "accident": 4822,
      "Olymp": 4823,
      "spacious": 4824,
      "SS": 4825,
      "worry": 4826,
      "shuttle": 4827,
      "relatively": 4828,
      "ades": 4829,
      "whenever": 4830,
      "Mary": 4831,
      "minis": 4832,
      "grease": 4833,
      "waffles": 4834,
      "dipping": 4835,
      "force": 4836,
      "alap": 4837,
      "Friendly": 4838,
      "\",": 4839,
      "lazy": 4840,
      "veal": 4841,
      "includes": 4842,
      "Ben": 4843,
      "Oil": 4844,
      "shred": 4845,
      "drag": 4846,
      "suspect": 4847,
      "fying": 4848,
      "qual": 4849,
      "spread": 4850,
      "Aug": 4851,
      "perform": 4852,
      "ccoli": 4853,
      "pine": 4854,
      "advantage": 4855,
      "individual": 4856,
      "bakery": 4857,
      "songs": 4858,
      "screw": 4859,
      "wrote": 4860,
      "peanut": 4861,
      "aked": 4862,
      "arant": 4863,
      "Shrimp": 4864,
      "isco": 4865,
      "warrant": 4866,
      "cable": 4867,
      "icing": 4868,
      "secret": 4869,
      "BA": 4870,
      "peace": 4871,
      "creative": 4872,
      "directly": 4873,
      "constru": 4874,
      "LI": 4875,
      "xim": 4876,
      "camera": 4877,
      "Em": 4878,
      "Home": 4879,
      "ators": 4880,
      "FOR": 4881,
      "bird": 4882,
      "typically": 4883,
      "margaritas": 4884,
      "consu": 4885,
      "Despite": 4886,
      "specifically": 4887,
      "partner": 4888,
      "idi": 4889,
      "cous": 4890,
      "elpers": 4891,
      "snack": 4892,
      "Down": 4893,
      "Long": 4894,
      "pleasantly": 4895,
      "coach": 4896,
      "asada": 4897,
      "massive": 4898,
      "numerous": 4899,
      "TI": 4900,
      "superb": 4901,
      "zzarella": 4902,
      "benef": 4903,
      "mexican": 4904,
      "agne": 4905,
      "carne": 4906,
      "details": 4907,
      "Sof": 4908,
      "Before": 4909,
      "gged": 4910,
      "military": 4911,
      "tortillas": 4912,
      "wasted": 4913,
      "nThat": 4914,
      "REALLY": 4915,
      "Highly": 4916,
      "fool": 4917,
      "vous": 4918,
      "charging": 4919,
      "encounter": 4920,
      "SU": 4921,
      "resol": 4922,
      "Full": 4923,
      "nthe": 4924,
      "asing": 4925,
      "Perhaps": 4926,
      "silver": 4927,
      "500": 4928,
      "Pot": 4929,
      "Sum": 4930,
      "avored": 4931,
      "verse": 4932,
      "traffic": 4933,
      "Come": 4934,
      "officials": 4935,
      "hospital": 4936,
      "autom": 4937,
      "Coun": 4938,
      "AA": 4939,
      "mango": 4940,
      "mustard": 4941,
      "talks": 4942,
      "ATE": 4943,
      "keeps": 4944,
      "German": 4945,
      "cucum": 4946,
      "exceptional": 4947,
      "advent": 4948,
      "comments": 4949,
      "Cost": 4950,
      "aly": 4951,
      "teous": 4952,
      "Vietnamese": 4953,
      "dream": 4954,
      "emer": 4955,
      "Squ": 4956,
      "layout": 4957,
      "ache": 4958,
      "comfy": 4959,
      "waffle": 4960,
      "jun": 4961,
      "rarely": 4962,
      "azed": 4963,
      "businesses": 4964,
      "ports": 4965,
      "garage": 4966,
      "tie": 4967,
      "EVERY": 4968,
      "fellow": 4969,
      "Venetian": 4970,
      "ARE": 4971,
      "occasions": 4972,
      ".\"": 4973,
      "shock": 4974,
      "dd": 4975,
      "current": 4976,
      "tack": 4977,
      "300": 4978,
      "Sometimes": 4979,
      "tran": 4980,
      "MY": 4981,
      "removed": 4982,
      "iest": 4983,
      "coupons": 4984,
      "Four": 4985,
      "donuts": 4986,
      "BO": 4987,
      "iff": 4988,
      "Manager": 4989,
      "66": 4990,
      "sake": 4991,
      "Sea": 4992,
      "nGreat": 4993,
      "tires": 4994,
      "deter": 4995,
      "latest": 4996,
      "slo": 4997,
      "repeat": 4998,
      "sett": 4999,
      "bf": 5000,
      "hurt": 5001,
      "unit": 5002,
      "enedict": 5003,
      "nNo": 5004,
      "rival": 5005,
      "White": 5006,
      "Frank": 5007,
      "tific": 5008,
      "courteous": 5009,
      "bou": 5010,
      "phones": 5011,
      "rede": 5012,
      "Drinks": 5013,
      "iri": 5014,
      "community": 5015,
      "Oc": 5016,
      "onic": 5017,
      "lame": 5018,
      "Been": 5019,
      "holiday": 5020,
      "fridge": 5021,
      "planned": 5022,
      "claimed": 5023,
      "ture": 5024,
      "sey": 5025,
      "hous": 5026,
      "ilities": 5027,
      "28": 5028,
      "raised": 5029,
      "mous": 5030,
      "ederal": 5031,
      "dumpl": 5032,
      "FU": 5033,
      "Town": 5034,
      "tempura": 5035,
      "PE": 5036,
      "smart": 5037,
      "OMG": 5038,
      "basil": 5039,
      "blo": 5040,
      "practice": 5041,
      "pudding": 5042,
      "Cosmo": 5043,
      "Bank": 5044,
      "fingers": 5045,
      "'.": 5046,
      "confir": 5047,
      "Gor": 5048,
      "si": 5049,
      "WE": 5050,
      "ibility": 5051,
      "Pork": 5052,
      "truffle": 5053,
      "umbs": 5054,
      "Group": 5055,
      "otic": 5056,
      "saved": 5057,
      "sizes": 5058,
      "activ": 5059,
      "BEST": 5060,
      "loaded": 5061,
      "Sweet": 5062,
      "yard": 5063,
      "involved": 5064,
      "cater": 5065,
      "Aria": 5066,
      "meatballs": 5067,
      "trade": 5068,
      "students": 5069,
      "Sou": 5070,
      "inner": 5071,
      "cupcake": 5072,
      "SER": 5073,
      "mont": 5074,
      "effects": 5075,
      "deserve": 5076,
      "Lou": 5077,
      "released": 5078,
      "wont": 5079,
      "Prof": 5080,
      "paint": 5081,
      "iyaki": 5082,
      "hetti": 5083,
      "mmm": 5084,
      "Tim": 5085,
      "originally": 5086,
      "mesan": 5087,
      "cue": 5088,
      "chefs": 5089,
      "recogn": 5090,
      "chow": 5091,
      "macar": 5092,
      "gency": 5093,
      "Rob": 5094,
      "finger": 5095,
      "Sat": 5096,
      "genuine": 5097,
      "TS": 5098,
      "rubber": 5099,
      "Gener": 5100,
      "temperature": 5101,
      "atives": 5102,
      "confirm": 5103,
      "chunks": 5104,
      "assume": 5105,
      "Sub": 5106,
      "fes": 5107,
      "ids": 5108,
      "picking": 5109,
      "jobs": 5110,
      "aghetti": 5111,
      "ava": 5112,
      "See": 5113,
      "TE": 5114,
      "FA": 5115,
      "Price": 5116,
      "bothered": 5117,
      "Fun": 5118,
      "estin": 5119,
      "booths": 5120,
      "____": 5121,
      "eats": 5122,
      "ization": 5123,
      "quesad": 5124,
      "WTF": 5125,
      "plane": 5126,
      "Afr": 5127,
      "aple": 5128,
      "flavored": 5129,
      "highlight": 5130,
      "cru": 5131,
      "pies": 5132,
      "mary": 5133,
      "believable": 5134,
      "---": 5135,
      "aired": 5136,
      "toss": 5137,
      "convin": 5138,
      "rob": 5139,
      "meaning": 5140,
      "ications": 5141,
      "built": 5142,
      "dust": 5143,
      "Span": 5144,
      "sadly": 5145,
      "cowork": 5146,
      "hasn": 5147,
      "PO": 5148,
      "diet": 5149,
      "reless": 5150,
      "Fish": 5151,
      "ell": 5152,
      "starving": 5153,
      "ppy": 5154,
      "appropriate": 5155,
      "jam": 5156,
      "hesit": 5157,
      "thrown": 5158,
      "Jan": 5159,
      "nation": 5160,
      "locked": 5161,
      "knock": 5162,
      "aint": 5163,
      "liness": 5164,
      "muffin": 5165,
      "phenomen": 5166,
      "yy": 5167,
      "zer": 5168,
      "san": 5169,
      "lor": 5170,
      "Having": 5171,
      "Custom": 5172,
      "sticky": 5173,
      "pleasure": 5174,
      "THAT": 5175,
      "humor": 5176,
      "downstairs": 5177,
      "moments": 5178,
      "bass": 5179,
      "remembered": 5180,
      "Lux": 5181,
      "meas": 5182,
      "classy": 5183,
      "andalay": 5184,
      "thous": 5185,
      "mechan": 5186,
      "apologize": 5187,
      "chup": 5188,
      "Pol": 5189,
      "pill": 5190,
      "undercooked": 5191,
      "pump": 5192,
      "curren": 5193,
      "TON": 5194,
      "Rich": 5195,
      "Sim": 5196,
      "State": 5197,
      "rec": 5198,
      "PC": 5199,
      "considered": 5200,
      "rang": 5201,
      "Bill": 5202,
      ",\\": 5203,
      "u00e4": 5204,
      "stress": 5205,
      "ceiling": 5206,
      "broccoli": 5207,
      "complaining": 5208,
      "install": 5209,
      "nois": 5210,
      "Casino": 5211,
      "grabbed": 5212,
      "Hal": 5213,
      "han": 5214,
      "rates": 5215,
      "Loved": 5216,
      "balance": 5217,
      "adult": 5218,
      "shoo": 5219,
      "dialo": 5220,
      "gal": 5221,
      "killer": 5222,
      "wers": 5223,
      "Though": 5224,
      "Por": 5225,
      "score": 5226,
      "iments": 5227,
      "delish": 5228,
      "Irish": 5229,
      "tre": 5230,
      "olive": 5231,
      "maintain": 5232,
      "GREAT": 5233,
      "breast": 5234,
      "\".": 5235,
      "das": 5236,
      "unlike": 5237,
      "goat": 5238,
      "Sandwich": 5239,
      "vs": 5240,
      "cancel": 5241,
      "depend": 5242,
      "cheesecake": 5243,
      "gotta": 5244,
      "prepar": 5245,
      "pastries": 5246,
      "boss": 5247,
      "earth": 5248,
      "Show": 5249,
      "AYCE": 5250,
      "ambience": 5251,
      "vodka": 5252,
      "irrit": 5253,
      "herself": 5254,
      "Palestin": 5255,
      "release": 5256,
      "scratch": 5257,
      "About": 5258,
      "pin": 5259,
      "previously": 5260,
      "cutting": 5261,
      "Los": 5262,
      "speaking": 5263,
      "27": 5264,
      "Ap": 5265,
      "Shop": 5266,
      "ja": 5267,
      "author": 5268,
      "membership": 5269,
      "besides": 5270,
      "andler": 5271,
      "shredded": 5272,
      "Web": 5273,
      "patron": 5274,
      "wines": 5275,
      "edge": 5276,
      "Mike": 5277,
      "Fries": 5278,
      "equally": 5279,
      "courses": 5280,
      "rette": 5281,
      "worthy": 5282,
      "holding": 5283,
      "BS": 5284,
      "deserves": 5285,
      "Part": 5286,
      "erely": 5287,
      "changing": 5288,
      "decorated": 5289,
      "..\\": 5290,
      "approach": 5291,
      "heated": 5292,
      "rave": 5293,
      "23": 5294,
      "pedi": 5295,
      "Mu": 5296,
      "ert": 5297,
      "tober": 5298,
      "anytime": 5299,
      "agus": 5300,
      "marri": 5301,
      "ordinary": 5302,
      "trendy": 5303,
      "mare": 5304,
      "mozzarella": 5305,
      "arrival": 5306,
      "Perfect": 5307,
      "browns": 5308,
      "engine": 5309,
      "nHe": 5310,
      "wand": 5311,
      "sco": 5312,
      "hurry": 5313,
      "WOW": 5314,
      "urch": 5315,
      "manicure": 5316,
      "reviewers": 5317,
      "garbage": 5318,
      "Wind": 5319,
      "sharing": 5320,
      "ases": 5321,
      "chief": 5322,
      "faces": 5323,
      "smells": 5324,
      "adding": 5325,
      "aud": 5326,
      "consistency": 5327,
      "shape": 5328,
      "keys": 5329,
      "desper": 5330,
      "nHowever": 5331,
      "bitter": 5332,
      "Make": 5333,
      "occup": 5334,
      "HH": 5335,
      "lying": 5336,
      "Lin": 5337,
      "groom": 5338,
      "vegetable": 5339,
      "Minister": 5340,
      "minimum": 5341,
      "tapas": 5342,
      "Cour": 5343,
      "loin": 5344,
      "Boy": 5345,
      "recommendations": 5346,
      "jalap": 5347,
      "suming": 5348,
      "steamed": 5349,
      "Could": 5350,
      "patty": 5351,
      "gentleman": 5352,
      "wanna": 5353,
      "reserved": 5354,
      "warning": 5355,
      "stone": 5356,
      "terror": 5357,
      "amic": 5358,
      "messed": 5359,
      "organic": 5360,
      "Mandalay": 5361,
      "Hope": 5362,
      "relation": 5363,
      "prepare": 5364,
      "pissed": 5365,
      "sor": 5366,
      "staffed": 5367,
      "Especially": 5368,
      "wing": 5369,
      "Tar": 5370,
      "heading": 5371,
      "east": 5372,
      "colors": 5373,
      "shirts": 5374,
      "Luckily": 5375,
      "haircut": 5376,
      "entially": 5377,
      "designed": 5378,
      "pred": 5379,
      "va": 5380,
      "Update": 5381,
      "Die": 5382,
      "Mir": 5383,
      "freshly": 5384,
      "assured": 5385,
      "namon": 5386,
      "ignon": 5387,
      "entered": 5388,
      "acknowled": 5389,
      "George": 5390,
      "MS": 5391,
      "uary": 5392,
      "thoroughly": 5393,
      "extensive": 5394,
      "Lob": 5395,
      "ketchup": 5396,
      "clim": 5397,
      "phys": 5398,
      "26": 5399,
      "sest": 5400,
      "tenance": 5401,
      "pow": 5402,
      "minal": 5403,
      "Mer": 5404,
      "Dec": 5405,
      "falling": 5406,
      "Honestly": 5407,
      "James": 5408,
      "adults": 5409,
      "student": 5410,
      "icky": 5411,
      "hung": 5412,
      "IBM": 5413,
      "whose": 5414,
      "nDon": 5415,
      "heads": 5416,
      "acqu": 5417,
      "code": 5418,
      "signature": 5419,
      "wondering": 5420,
      "Paul": 5421,
      "insp": 5422,
      "HOR": 5423,
      "exciting": 5424,
      "ador": 5425,
      "Coffee": 5426,
      "pepperoni": 5427,
      "remark": 5428,
      "player": 5429,
      "cali": 5430,
      "afr": 5431,
      "uster": 5432,
      ".)\\": 5433,
      "angry": 5434,
      "...&": 5435,
      "died": 5436,
      "Nove": 5437,
      "clients": 5438,
      "initial": 5439,
      "tank": 5440,
      "stat": 5441,
      "30pm": 5442,
      "Take": 5443,
      "nie": 5444,
      "hero": 5445,
      "boxes": 5446,
      "cape": 5447,
      "crepe": 5448,
      "legal": 5449,
      "Spanish": 5450,
      "Cur": 5451,
      "ume": 5452,
      "toasted": 5453,
      "craw": 5454,
      "guarant": 5455,
      "BI": 5456,
      "esa": 5457,
      "useum": 5458,
      "heck": 5459,
      "minor": 5460,
      "model": 5461,
      "indeed": 5462,
      "Iraqi": 5463,
      "Ban": 5464,
      "Canad": 5465,
      "Willi": 5466,
      "nowhere": 5467,
      "mobile": 5468,
      "fuck": 5469,
      "steal": 5470,
      "Palace": 5471,
      "Tech": 5472,
      "uffy": 5473,
      "stun": 5474,
      "slaw": 5475,
      "soups": 5476,
      "sand": 5477,
      "TVs": 5478,
      "repeated": 5479,
      ";...&": 5480,
      "goods": 5481,
      "sole": 5482,
      "Reg": 5483,
      "golf": 5484,
      "????": 5485,
      "renov": 5486,
      "rose": 5487,
      "attemp": 5488,
      "tops": 5489,
      "atory": 5490,
      "ourmet": 5491,
      "Russian": 5492,
      "dden": 5493,
      "neat": 5494,
      "Keep": 5495,
      "develop": 5496,
      "graphy": 5497,
      "phenomenal": 5498,
      "winter": 5499,
      "adium": 5500,
      "otto": 5501,
      "offerings": 5502,
      "managers": 5503,
      "Ber": 5504,
      "treats": 5505,
      "Night": 5506,
      "pock": 5507,
      ":)\\": 5508,
      "mater": 5509,
      "spices": 5510,
      "\"&": 5511,
      "Boston": 5512,
      "Hour": 5513,
      "Que": 5514,
      "gambling": 5515,
      "tel": 5516,
      "closest": 5517,
      "ply": 5518,
      "reci": 5519,
      "ila": 5520,
      "inf": 5521,
      "ridiculously": 5522,
      "scram": 5523,
      "helps": 5524,
      "England": 5525,
      "mit": 5526,
      "July": 5527,
      "honor": 5528,
      "seed": 5529,
      "fourth": 5530,
      "Break": 5531,
      "north": 5532,
      "--------": 5533,
      "described": 5534,
      "afraid": 5535,
      "neck": 5536,
      "guard": 5537,
      "chet": 5538,
      "mushy": 5539,
      "Chocolate": 5540,
      "Act": 5541,
      "iant": 5542,
      "risk": 5543,
      "practically": 5544,
      "fif": 5545,
      "Free": 5546,
      "aspect": 5547,
      "cares": 5548,
      "Men": 5549,
      "savory": 5550,
      "Tor": 5551,
      "tes": 5552,
      "getic": 5553,
      "AIN": 5554,
      "wifi": 5555,
      "redeem": 5556,
      "Bro": 5557,
      "bang": 5558,
      "casinos": 5559,
      "dude": 5560,
      "caramel": 5561,
      "ida": 5562,
      "brus": 5563,
      "Dou": 5564,
      "langu": 5565,
      "wasnt": 5566,
      "fiance": 5567,
      "loyal": 5568,
      "Franc": 5569,
      "pace": 5570,
      "compe": 5571,
      "roof": 5572,
      "ONLY": 5573,
      "project": 5574,
      "killing": 5575,
      "skills": 5576,
      "Play": 5577,
      "created": 5578,
      "docum": 5579,
      "inviting": 5580,
      "enchiladas": 5581,
      "Washing": 5582,
      "growing": 5583,
      "animals": 5584,
      "chopped": 5585,
      "economy": 5586,
      "Fire": 5587,
      "orrow": 5588,
      "sudden": 5589,
      "Express": 5590,
      "HERE": 5591,
      "television": 5592,
      "luke": 5593,
      "ening": 5594,
      "tooth": 5595,
      "drug": 5596,
      "conference": 5597,
      "vey": 5598,
      "ginger": 5599,
      "burritos": 5600,
      "pineapple": 5601,
      "Mil": 5602,
      "clue": 5603,
      "amen": 5604,
      "nWhile": 5605,
      "restroom": 5606,
      "clothing": 5607,
      "cher": 5608,
      "Dar": 5609,
      "Miss": 5610,
      "tig": 5611,
      "relaxed": 5612,
      "ko": 5613,
      "Washington": 5614,
      "official": 5615,
      "topping": 5616,
      "remove": 5617,
      "coll": 5618,
      "draft": 5619,
      "counts": 5620,
      "boba": 5621,
      "sno": 5622,
      "entious": 5623,
      "maintenance": 5624,
      "bull": 5625,
      "tat": 5626,
      "arily": 5627,
      "signific": 5628,
      "frequently": 5629,
      "sion": 5630,
      "leng": 5631,
      "suppl": 5632,
      "29": 5633,
      "squee": 5634,
      "actions": 5635,
      "mainly": 5636,
      "gant": 5637,
      "emot": 5638,
      "statement": 5639,
      "UK": 5640,
      "buds": 5641,
      "annivers": 5642,
      "downhill": 5643,
      "central": 5644,
      "gyro": 5645,
      "suggestions": 5646,
      "aign": 5647,
      "falls": 5648,
      "commer": 5649,
      "BC": 5650,
      "shakes": 5651,
      "pickles": 5652,
      "appealing": 5653,
      "General": 5654,
      "hits": 5655,
      "inexpensive": 5656,
      "blame": 5657,
      "replied": 5658,
      "nWell": 5659,
      "entirely": 5660,
      "majority": 5661,
      "Bus": 5662,
      "Pak": 5663,
      "Sports": 5664,
      "brill": 5665,
      "chinese": 5666,
      "erson": 5667,
      "October": 5668,
      "file": 5669,
      "aspar": 5670,
      "beha": 5671,
      "creep": 5672,
      "MM": 5673,
      "International": 5674,
      "ey": 5675,
      "aret": 5676,
      "argu": 5677,
      "studio": 5678,
      "quant": 5679,
      "insane": 5680,
      "ained": 5681,
      "terrific": 5682,
      "crepes": 5683,
      "greatest": 5684,
      "leftovers": 5685,
      "cious": 5686,
      "toward": 5687,
      "tower": 5688,
      "YUM": 5689,
      "Clean": 5690,
      "western": 5691,
      "canned": 5692,
      "rupt": 5693,
      "substit": 5694,
      "addic": 5695,
      "bagels": 5696,
      "Usu": 5697,
      "background": 5698,
      "gling": 5699,
      "REF": 5700,
      "antro": 5701,
      "stum": 5702,
      "contr": 5703,
      "fortunate": 5704,
      "eight": 5705,
      "susp": 5706,
      "competition": 5707,
      "freak": 5708,
      "fatty": 5709,
      "blown": 5710,
      "Vis": 5711,
      "champagne": 5712,
      "trail": 5713,
      "eggplant": 5714,
      "rise": 5715,
      "twist": 5716,
      "promise": 5717,
      "anniversary": 5718,
      "purpose": 5719,
      "Lon": 5720,
      "Canadian": 5721,
      "midnight": 5722,
      "FE": 5723,
      "spaghetti": 5724,
      "fired": 5725,
      "inqu": 5726,
      "Gri": 5727,
      "cancell": 5728,
      "Braz": 5729,
      "u00a": 5730,
      "PH": 5731,
      "sink": 5732,
      "collection": 5733,
      "square": 5734,
      "families": 5735,
      "zing": 5736,
      "len": 5737,
      "rocks": 5738,
      "concerns": 5739,
      "asparagus": 5740,
      "confusing": 5741,
      "martini": 5742,
      "stories": 5743,
      "nAnyway": 5744,
      "Tru": 5745,
      "cture": 5746,
      "angria": 5747,
      "Anyways": 5748,
      "SH": 5749,
      "beye": 5750,
      "grew": 5751,
      "delightful": 5752,
      "yu": 5753,
      "performances": 5754,
      "overwhelming": 5755,
      "alle": 5756,
      "eater": 5757,
      "usive": 5758,
      "tad": 5759,
      "poison": 5760,
      "manage": 5761,
      "Save": 5762,
      "Van": 5763,
      "finan": 5764,
      "miso": 5765,
      "gie": 5766,
      "tone": 5767,
      "intimate": 5768,
      "winning": 5769,
      "confirmed": 5770,
      "fork": 5771,
      "badly": 5772,
      "Meh": 5773,
      "rules": 5774,
      "regularly": 5775,
      "Island": 5776,
      "becomes": 5777,
      "acts": 5778,
      "teeth": 5779,
      "Lee": 5780,
      "Ty": 5781,
      "pretentious": 5782,
      "carr": 5783,
      "accommodate": 5784,
      "ires": 5785,
      "easier": 5786,
      "dumplings": 5787,
      "hire": 5788,
      "letting": 5789,
      "stands": 5790,
      "?!?!": 5791,
      "Customer": 5792,
      "Cub": 5793,
      "Little": 5794,
      "beg": 5795,
      "agon": 5796,
      "berg": 5797,
      "August": 5798,
      "appet": 5799,
      "ripped": 5800,
      "iring": 5801,
      "buzz": 5802,
      "tho": 5803,
      "features": 5804,
      "flash": 5805,
      "puts": 5806,
      "popcorn": 5807,
      "fond": 5808,
      "payment": 5809,
      "required": 5810,
      "island": 5811,
      "buffalo": 5812,
      "Cirque": 5813,
      "abi": 5814,
      "cucumber": 5815,
      "burned": 5816,
      "auto": 5817,
      "bedroom": 5818,
      "Usually": 5819,
      "LON": 5820,
      "Tro": 5821,
      "filthy": 5822,
      "Austral": 5823,
      "Back": 5824,
      "tro": 5825,
      "punch": 5826,
      "ottom": 5827,
      "League": 5828,
      "tan": 5829,
      "fel": 5830,
      "satisfying": 5831,
      "competent": 5832,
      "theless": 5833,
      "chy": 5834,
      "gras": 5835,
      "Comp": 5836,
      "Ken": 5837,
      "ease": 5838,
      "illed": 5839,
      "OUR": 5840,
      "murder": 5841,
      "YE": 5842,
      "flaw": 5843,
      "personality": 5844,
      "elly": 5845,
      "invest": 5846,
      "dos": 5847,
      "ads": 5848,
      "shown": 5849,
      "copy": 5850,
      "term": 5851,
      "bloody": 5852,
      "n5": 5853,
      "accur": 5854,
      "aved": 5855,
      "breath": 5856,
      "Ice": 5857,
      "fle": 5858,
      "150": 5859,
      "Australia": 5860,
      "TR": 5861,
      "Tried": 5862,
      "lover": 5863,
      "novel": 5864,
      "bowls": 5865,
      "Tre": 5866,
      "dates": 5867,
      "creme": 5868,
      "Scott": 5869,
      "Rice": 5870,
      "Fall": 5871,
      "snow": 5872,
      "theat": 5873,
      "==": 5874,
      "xious": 5875,
      "cinnamon": 5876,
      "Mor": 5877,
      "feature": 5878,
      "Security": 5879,
      "napkins": 5880,
      "states": 5881,
      "younger": 5882,
      "spoon": 5883,
      "sert": 5884,
      "hello": 5885,
      "Many": 5886,
      "jour": 5887,
      "biscuits": 5888,
      "Chipotle": 5889,
      "Chandler": 5890,
      "News": 5891,
      "underwhel": 5892,
      "FRE": 5893,
      "pac": 5894,
      "vot": 5895,
      "forgotten": 5896,
      "encour": 5897,
      "oppo": 5898,
      "tomorrow": 5899,
      "rack": 5900,
      "forth": 5901,
      "happening": 5902,
      "scary": 5903,
      "GOOD": 5904,
      "gall": 5905,
      "pants": 5906,
      "trips": 5907,
      "whis": 5908,
      "Sadly": 5909,
      "IO": 5910,
      "page": 5911,
      "damage": 5912,
      "levels": 5913,
      "inspired": 5914,
      "watery": 5915,
      "reality": 5916,
      "careful": 5917,
      "Ob": 5918,
      "Those": 5919,
      "FR": 5920,
      "mint": 5921,
      "mming": 5922,
      "pun": 5923,
      "Otherwise": 5924,
      "VICE": 5925,
      "language": 5926,
      "jump": 5927,
      "concern": 5928,
      "LT": 5929,
      "everyday": 5930,
      "flower": 5931,
      "checks": 5932,
      "acknowledge": 5933,
      "During": 5934,
      "adjust": 5935,
      "National": 5936,
      "Small": 5937,
      "lip": 5938,
      "grace": 5939,
      "Edin": 5940,
      "unable": 5941,
      "houses": 5942,
      "Garden": 5943,
      "exhi": 5944,
      "episode": 5945,
      "55": 5946,
      "tam": 5947,
      "olives": 5948,
      "liquor": 5949,
      "hilar": 5950,
      "aps": 5951,
      "Flor": 5952,
      "ghan": 5953,
      "explan": 5954,
      "walks": 5955,
      "inten": 5956,
      "dump": 5957,
      "disaster": 5958,
      "mond": 5959,
      "concl": 5960,
      "ga": 5961,
      "blank": 5962,
      "pets": 5963,
      "vouch": 5964,
      "alot": 5965,
      "shar": 5966,
      "dealing": 5967,
      "inedible": 5968,
      "witness": 5969,
      "approached": 5970,
      "reminds": 5971,
      "introduced": 5972,
      "beverage": 5973,
      "HORRIBLE": 5974,
      "bra": 5975,
      "settle": 5976,
      "latte": 5977,
      "quesadilla": 5978,
      "fective": 5979,
      "Crab": 5980,
      "Time": 5981,
      "gratu": 5982,
      "battle": 5983,
      "Edinburgh": 5984,
      "makers": 5985,
      "ustard": 5986,
      "steakhouse": 5987,
      "Lar": 5988,
      "amond": 5989,
      "teach": 5990,
      "yr": 5991,
      "Iran": 5992,
      "passes": 5993,
      "truth": 5994,
      "nur": 5995,
      "ading": 5996,
      "loose": 5997,
      "mussels": 5998,
      "Real": 5999,
      "medical": 6000,
      "tier": 6001,
      "Walk": 6002,
      "ape": 6003,
      "chile": 6004,
      "desired": 6005,
      "semi": 6006,
      "dined": 6007,
      "hat": 6008,
      "claims": 6009,
      "directed": 6010,
      "strips": 6011,
      "!),": 6012,
      "vend": 6013,
      "PLE": 6014,
      "zone": 6015,
      "drama": 6016,
      "faster": 6017,
      "achi": 6018,
      "grade": 6019,
      "Enjoy": 6020,
      "pit": 6021,
      "oring": 6022,
      "rule": 6023,
      "Seem": 6024,
      "NYC": 6025,
      "Pakistan": 6026,
      "ugs": 6027,
      "Denny": 6028,
      "buns": 6029,
      "Disney": 6030,
      "inj": 6031,
      "quoted": 6032,
      "dumb": 6033,
      "microwave": 6034,
      "cit": 6035,
      "pile": 6036,
      "prise": 6037,
      "tourist": 6038,
      "nShe": 6039,
      "related": 6040,
      "Ele": 6041,
      "buddy": 6042,
      "oily": 6043,
      "ske": 6044,
      "ola": 6045,
      "hopefully": 6046,
      "accus": 6047,
      "laughing": 6048,
      "Wood": 6049,
      "arms": 6050,
      "idential": 6051,
      "graph": 6052,
      "Buy": 6053,
      "Mesa": 6054,
      "pee": 6055,
      "ctic": 6056,
      "flying": 6057,
      "croiss": 6058,
      "Tri": 6059,
      "tember": 6060,
      "insisted": 6061,
      "Rom": 6062,
      "oriz": 6063,
      "lling": 6064,
      "stor": 6065,
      "thinks": 6066,
      "irty": 6067,
      "presso": 6068,
      "warranty": 6069,
      "gourmet": 6070,
      "anyways": 6071,
      "aks": 6072,
      "whatso": 6073,
      "cilantro": 6074,
      "yelling": 6075,
      "Past": 6076,
      "psy": 6077,
      "joints": 6078,
      "passion": 6079,
      "cuz": 6080,
      "ateg": 6081,
      "imm": 6082,
      "career": 6083,
      "entering": 6084,
      "comparison": 6085,
      "mirror": 6086,
      "uct": 6087,
      "container": 6088,
      "Soft": 6089,
      "Tony": 6090,
      "cooks": 6091,
      "coke": 6092,
      "nightmare": 6093,
      "teriyaki": 6094,
      "bored": 6095,
      "Fac": 6096,
      "fold": 6097,
      "asian": 6098,
      "Hawaiian": 6099,
      "pi": 6100,
      "amed": 6101,
      "freaking": 6102,
      "international": 6103,
      "fed": 6104,
      "caused": 6105,
      "Add": 6106,
      "whatsoever": 6107,
      "***": 6108,
      "Ow": 6109,
      "garden": 6110,
      "entry": 6111,
      "apps": 6112,
      "alternative": 6113,
      "WORST": 6114,
      "Cons": 6115,
      "numbers": 6116,
      "September": 6117,
      "fluffy": 6118,
      "construction": 6119,
      ".'": 6120,
      "remote": 6121,
      "screaming": 6122,
      "inary": 6123,
      "bear": 6124,
      "understanding": 6125,
      "espresso": 6126,
      "growth": 6127,
      "refilled": 6128,
      "regulars": 6129,
      "McDonald": 6130,
      "NAS": 6131,
      "owns": 6132,
      "comped": 6133,
      "Steve": 6134,
      "ravioli": 6135,
      "istro": 6136,
      "contacted": 6137,
      "Lobster": 6138,
      "Does": 6139,
      "expand": 6140,
      "broad": 6141,
      "attractive": 6142,
      "gery": 6143,
      "Kitchen": 6144,
      "jewel": 6145,
      "Network": 6146,
      "worried": 6147,
      "educ": 6148,
      "iers": 6149,
      "pushed": 6150,
      "Soup": 6151,
      "400": 6152,
      "arts": 6153,
      "valu": 6154,
      "concert": 6155,
      "represent": 6156,
      "Cre": 6157,
      "airy": 6158,
      "source": 6159,
      "commercial": 6160,
      "beautifully": 6161,
      "tempor": 6162,
      "handful": 6163,
      "Mag": 6164,
      "smoothie": 6165,
      "cheddar": 6166,
      "32": 6167,
      "adequ": 6168,
      "incident": 6169,
      "rr": 6170,
      "ups": 6171,
      "elevators": 6172,
      "enderson": 6173,
      "France": 6174,
      "magic": 6175,
      "dentist": 6176,
      "washed": 6177,
      "pesto": 6178,
      "Square": 6179,
      "Fam": 6180,
      "reput": 6181,
      "pig": 6182,
      "lls": 6183,
      "chand": 6184,
      "anta": 6185,
      "lobal": 6186,
      "picy": 6187,
      "advertised": 6188,
      "replacement": 6189,
      "suggestion": 6190,
      "etro": 6191,
      "stret": 6192,
      "wheel": 6193,
      "gree": 6194,
      "Bow": 6195,
      "verages": 6196,
      "ticker": 6197,
      "nNext": 6198,
      "Kind": 6199,
      "Ve": 6200,
      "agement": 6201,
      "Planet": 6202,
      "Sox": 6203,
      "backs": 6204,
      "southern": 6205,
      "pout": 6206,
      "lian": 6207,
      "Post": 6208,
      "orizo": 6209,
      "pical": 6210,
      "winner": 6211,
      "gang": 6212,
      "assort": 6213,
      "silly": 6214,
      "bonus": 6215,
      "Right": 6216,
      "nuclear": 6217,
      "technic": 6218,
      "Tea": 6219,
      "assuming": 6220,
      "trained": 6221,
      "goo": 6222,
      "appetizing": 6223,
      "passing": 6224,
      "celebrate": 6225,
      "Lad": 6226,
      "apolo": 6227,
      "iron": 6228,
      "los": 6229,
      "factor": 6230,
      "pu": 6231,
      "counted": 6232,
      "Beaut": 6233,
      "sters": 6234,
      "Inter": 6235,
      "Beer": 6236,
      "scoop": 6237,
      "reuters": 6238,
      "Wall": 6239,
      "takeout": 6240,
      "hamburger": 6241,
      "champion": 6242,
      "Avoid": 6243,
      "nGood": 6244,
      "HREF": 6245,
      "za": 6246,
      "premi": 6247,
      "pastry": 6248,
      "Enter": 6249,
      "Special": 6250,
      "chetta": 6251,
      "mountain": 6252,
      "whom": 6253,
      "opposite": 6254,
      "exchange": 6255,
      "symp": 6256,
      "Poor": 6257,
      "carrots": 6258,
      "brief": 6259,
      "spray": 6260,
      "azzo": 6261,
      "ein": 6262,
      "investor": 6263,
      "wound": 6264,
      "unhappy": 6265,
      "\\\"\"\\": 6266,
      "join": 6267,
      "fighting": 6268,
      "Water": 6269,
      "convention": 6270,
      "thusi": 6271,
      "NT": 6272,
      "dram": 6273,
      "Five": 6274,
      "nE": 6275,
      "danger": 6276,
      "uk": 6277,
      "diners": 6278,
      "session": 6279,
      "personable": 6280,
      "presc": 6281,
      "November": 6282,
      "salted": 6283,
      "Rio": 6284,
      "holes": 6285,
      "encountered": 6286,
      "noisy": 6287,
      "tival": 6288,
      "spoiled": 6289,
      "Class": 6290,
      "Afghan": 6291,
      "ashes": 6292,
      "regarding": 6293,
      "Israeli": 6294,
      "vill": 6295,
      "losing": 6296,
      "LOL": 6297,
      "loaf": 6298,
      "swear": 6299,
      "faj": 6300,
      "grees": 6301,
      "handled": 6302,
      "Breakfast": 6303,
      "pap": 6304,
      "Mexico": 6305,
      "Sing": 6306,
      "couch": 6307,
      "shortly": 6308,
      "violence": 6309,
      "Bes": 6310,
      "agent": 6311,
      "turning": 6312,
      "settled": 6313,
      "Mel": 6314,
      "plat": 6315,
      "description": 6316,
      "initially": 6317,
      "whipped": 6318,
      "stellar": 6319,
      "throwing": 6320,
      "depending": 6321,
      "PS": 6322,
      "behavi": 6323,
      "sprink": 6324,
      "hassle": 6325,
      "watered": 6326,
      "anticip": 6327,
      "enthusi": 6328,
      "marked": 6329,
      "fear": 6330,
      "wheat": 6331,
      "Palestinian": 6332,
      "web": 6333,
      "content": 6334,
      "FO": 6335,
      "Talk": 6336,
      "-$": 6337,
      "Bud": 6338,
      "lies": 6339,
      "moves": 6340,
      "stack": 6341,
      "beverages": 6342,
      "unacceptable": 6343,
      "igiri": 6344,
      "2005": 6345,
      "critic": 6346,
      "ration": 6347,
      "redu": 6348,
      "Server": 6349,
      "samples": 6350,
      "recall": 6351,
      "lift": 6352,
      "Walmart": 6353,
      "Austr": 6354,
      "inven": 6355,
      "liking": 6356,
      "earned": 6357,
      "memory": 6358,
      "vinegar": 6359,
      "currently": 6360,
      "OUT": 6361,
      "Francisco": 6362,
      "Watch": 6363,
      "apping": 6364,
      "belong": 6365,
      "rolling": 6366,
      "gig": 6367,
      "nWith": 6368,
      "accompan": 6369,
      "rican": 6370,
      "terribly": 6371,
      "prison": 6372,
      "frosting": 6373,
      "animal": 6374,
      "rum": 6375,
      "Sil": 6376,
      "oul": 6377,
      "icans": 6378,
      "stations": 6379,
      "chatting": 6380,
      "lled": 6381,
      "acknowledged": 6382,
      "COM": 6383,
      "waters": 6384,
      "adds": 6385,
      "satisfac": 6386,
      "2014": 6387,
      "=/": 6388,
      "BF": 6389,
      "Henderson": 6390,
      "forms": 6391,
      "stopping": 6392,
      "shares": 6393,
      "Wild": 6394,
      "transfer": 6395,
      "Stopped": 6396,
      "cier": 6397,
      "president": 6398,
      "aches": 6399,
      "arent": 6400,
      "ville": 6401,
      "stery": 6402,
      "workout": 6403,
      "Spring": 6404,
      "wallet": 6405,
      "HI": 6406,
      "mani": 6407,
      "ension": 6408,
      "coast": 6409,
      "Robert": 6410,
      "appearance": 6411,
      "Olympic": 6412,
      "Port": 6413,
      "anger": 6414,
      "minus": 6415,
      "deb": 6416,
      "receptionist": 6417,
      "olf": 6418,
      "foie": 6419,
      "4th": 6420,
      "Australian": 6421,
      "pancake": 6422,
      "Ra": 6423,
      "PER": 6424,
      "YOUR": 6425,
      "strawberries": 6426,
      "Louis": 6427,
      "error": 6428,
      "basis": 6429,
      "responded": 6430,
      "2013": 6431,
      "cabbage": 6432,
      "mash": 6433,
      "singing": 6434,
      "explaining": 6435,
      "waitstaff": 6436,
      "tall": 6437,
      "airline": 6438,
      "Cab": 6439,
      "Gen": 6440,
      "mun": 6441,
      "enchilada": 6442,
      "caf": 6443,
      "skimp": 6444,
      "reached": 6445,
      "Central": 6446,
      "investig": 6447,
      ",\"": 6448,
      "steps": 6449,
      "instructor": 6450,
      "ius": 6451,
      "shel": 6452,
      "Vic": 6453,
      "Ever": 6454,
      "politan": 6455,
      "Russia": 6456,
      "Nood": 6457,
      "appetite": 6458,
      "FI": 6459,
      "Pre": 6460,
      "umb": 6461,
      "aux": 6462,
      "sprouts": 6463,
      "penny": 6464,
      "ION": 6465,
      "document": 6466,
      "jokes": 6467,
      "predic": 6468,
      "anas": 6469,
      "finishing": 6470,
      "rami": 6471,
      "poured": 6472,
      "icate": 6473,
      "rend": 6474,
      "tourists": 6475,
      "nJust": 6476,
      "snacks": 6477,
      "UR": 6478,
      "housekeeping": 6479,
      "apologetic": 6480,
      "Na": 6481,
      "forces": 6482,
      "slowly": 6483,
      "amenities": 6484,
      ",,": 6485,
      "pools": 6486,
      "stocked": 6487,
      "brid": 6488,
      "certific": 6489,
      "49": 6490,
      "grown": 6491,
      "Order": 6492,
      "require": 6493,
      "sweat": 6494,
      "explanation": 6495,
      "ilton": 6496,
      "radio": 6497,
      "afterwards": 6498,
      "lemonade": 6499,
      "darn": 6500,
      "Bread": 6501,
      "supporting": 6502,
      "venture": 6503,
      "FL": 6504,
      "Gil": 6505,
      "Pay": 6506,
      "cure": 6507,
      "sev": 6508,
      "Such": 6509,
      "nHere": 6510,
      "snob": 6511,
      "brain": 6512,
      "grad": 6513,
      "allerg": 6514,
      "hilarious": 6515,
      "Florida": 6516,
      "farm": 6517,
      "Windows": 6518,
      "dut": 6519,
      "onde": 6520,
      "aine": 6521,
      "Oracle": 6522,
      "dirt": 6523,
      "kers": 6524,
      "stepped": 6525,
      "miser": 6526,
      "study": 6527,
      "tribut": 6528,
      "arriving": 6529,
      "amingo": 6530,
      "pon": 6531,
      "foreign": 6532,
      "media": 6533,
      "tellig": 6534,
      "65": 6535,
      "ental": 6536,
      "noc": 6537,
      "ousy": 6538,
      "touched": 6539,
      "AGAIN": 6540,
      "Gy": 6541,
      "Yo": 6542,
      "silverware": 6543,
      "laughed": 6544,
      "flour": 6545,
      "Music": 6546,
      "ety": 6547,
      "BR": 6548,
      "itor": 6549,
      "maid": 6550,
      "charm": 6551,
      "leads": 6552,
      "brush": 6553,
      "nLast": 6554,
      "Du": 6555,
      "bound": 6556,
      "Gordon": 6557,
      "rane": 6558,
      "Better": 6559,
      "Kim": 6560,
      "data": 6561,
      "agna": 6562,
      "qui": 6563,
      "charming": 6564,
      "aste": 6565,
      "Italy": 6566,
      "Hey": 6567,
      "weekly": 6568,
      "scam": 6569,
      "challenge": 6570,
      "flowers": 6571,
      "ghter": 6572,
      "Someone": 6573,
      "Fat": 6574,
      "luster": 6575,
      "aspx": 6576,
      "Sk": 6577,
      "carn": 6578,
      "slam": 6579,
      "Mom": 6580,
      "placing": 6581,
      "Alex": 6582,
      "twenty": 6583,
      "outrage": 6584,
      "mith": 6585,
      "Call": 6586,
      "Meat": 6587,
      "museum": 6588,
      "Start": 6589,
      "executive": 6590,
      "agno": 6591,
      "Give": 6592,
      "Intel": 6593,
      "born": 6594,
      "Mal": 6595,
      "risotto": 6596,
      "distr": 6597,
      "frustrated": 6598,
      "degrees": 6599,
      "adise": 6600,
      "junk": 6601,
      "function": 6602,
      "Union": 6603,
      "strike": 6604,
      "Dep": 6605,
      "Ru": 6606,
      "jerk": 6607,
      "timely": 6608,
      "path": 6609,
      "DI": 6610,
      "vy": 6611,
      "custard": 6612,
      "nCons": 6613,
      "surgery": 6614,
      "brilliant": 6615,
      "poisoning": 6616,
      "nOther": 6617,
      "Game": 6618,
      "Spicy": 6619,
      "downside": 6620,
      "finds": 6621,
      "igned": 6622,
      "SERVICE": 6623,
      "',": 6624,
      "TW": 6625,
      "frank": 6626,
      "Almost": 6627,
      "upgraded": 6628,
      "Dri": 6629,
      "safet": 6630,
      "artich": 6631,
      "compens": 6632,
      "ACK": 6633,
      "Vir": 6634,
      "amer": 6635,
      "Stars": 6636,
      "safety": 6637,
      "pec": 6638,
      "caring": 6639,
      "Pep": 6640,
      "tong": 6641,
      "connected": 6642,
      "owed": 6643,
      "u00e8s": 6644,
      "sis": 6645,
      "este": 6646,
      "Smith": 6647,
      "ander": 6648,
      "shoot": 6649,
      "Israel": 6650,
      "relationship": 6651,
      "Ugh": 6652,
      "preferred": 6653,
      "nOnce": 6654,
      "nit": 6655,
      "ales": 6656,
      "sky": 6657,
      "Sud": 6658,
      "armac": 6659,
      "gamble": 6660,
      "MI": 6661,
      "portray": 6662,
      "scared": 6663,
      "attempted": 6664,
      "aky": 6665,
      "shoe": 6666,
      "favour": 6667,
      "tattoo": 6668,
      "Eas": 6669,
      "degree": 6670,
      "Whatever": 6671,
      "u30": 6672,
      "Unless": 6673,
      "extr": 6674,
      "rudely": 6675,
      "Ry": 6676,
      "length": 6677,
      ";)": 6678,
      "appointed": 6679,
      "gratuity": 6680,
      "lugg": 6681,
      "connect": 6682,
      "aya": 6683,
      "teas": 6684,
      "clerk": 6685,
      "legit": 6686,
      "nal": 6687,
      "blend": 6688,
      "INGTON": 6689,
      "Guess": 6690,
      "benefit": 6691,
      "political": 6692,
      "lightly": 6693,
      "Kobe": 6694,
      "quantity": 6695,
      "itors": 6696,
      "arc": 6697,
      "PLA": 6698,
      "capital": 6699,
      "fai": 6700,
      "GI": 6701,
      "iche": 6702,
      "unusual": 6703,
      "WHAT": 6704,
      "letter": 6705,
      "sexy": 6706,
      "Half": 6707,
      "AK": 6708,
      "Mat": 6709,
      "bub": 6710,
      "agreement": 6711,
      "declined": 6712,
      "Canada": 6713,
      "metal": 6714,
      "atically": 6715,
      "therap": 6716,
      "supervis": 6717,
      "ESOME": 6718,
      "Sw": 6719,
      "iel": 6720,
      "ena": 6721,
      "Week": 6722,
      "successful": 6723,
      "sir": 6724,
      "Deli": 6725,
      "WASH": 6726,
      "talented": 6727,
      "Yelpers": 6728,
      "Sl": 6729,
      "Golden": 6730,
      "idents": 6731,
      "blocks": 6732,
      "ranean": 6733,
      "users": 6734,
      "unfriendly": 6735,
      "provides": 6736,
      "rial": 6737,
      "fullquote": 6738,
      "quickinfo": 6739,
      "network": 6740,
      "FullQuote": 6741,
      "ife": 6742,
      "slot": 6743,
      "screwed": 6744,
      "frustrating": 6745,
      "gather": 6746,
      "wins": 6747,
      "ribeye": 6748,
      "Court": 6749,
      "chances": 6750,
      "Kar": 6751,
      "nom": 6752,
      "patients": 6753,
      "pretzel": 6754,
      "Shar": 6755,
      "Wish": 6756,
      "tout": 6757,
      "brows": 6758,
      "aby": 6759,
      "leslaw": 6760,
      "Called": 6761,
      "worn": 6762,
      "supposedly": 6763,
      "ilian": 6764,
      "cramped": 6765,
      "yer": 6766,
      "Wonder": 6767,
      "wake": 6768,
      "flav": 6769,
      "velvet": 6770,
      "searching": 6771,
      "assumed": 6772,
      "bargain": 6773,
      "fits": 6774,
      "ugly": 6775,
      "Parking": 6776,
      "minimal": 6777,
      "sending": 6778,
      "parti": 6779,
      "dresses": 6780,
      "Salmon": 6781,
      "expert": 6782,
      "London": 6783,
      "pocket": 6784,
      "donut": 6785,
      "pathetic": 6786,
      "jac": 6787,
      "baseball": 6788,
      "chic": 6789,
      "Mas": 6790,
      "discover": 6791,
      "Light": 6792,
      "Richard": 6793,
      "occupied": 6794,
      "Ranch": 6795,
      "continues": 6796,
      "awn": 6797,
      "Station": 6798,
      "AWESOME": 6799,
      "creepy": 6800,
      "bench": 6801,
      "berto": 6802,
      "Bacon": 6803,
      "behavior": 6804,
      "weed": 6805,
      "knife": 6806,
      "doctors": 6807,
      "iterranean": 6808,
      "married": 6809,
      "checkout": 6810,
      "distur": 6811,
      "aspberry": 6812,
      "rubbery": 6813,
      "BAD": 6814,
      "shift": 6815,
      "generic": 6816,
      "mistakes": 6817,
      "hundreds": 6818,
      "intention": 6819,
      "wart": 6820,
      "CR": 6821,
      "Actually": 6822,
      "Low": 6823,
      "facing": 6824,
      "yoga": 6825,
      "adequate": 6826,
      "Nope": 6827,
      "Summer": 6828,
      "Cool": 6829,
      "sheets": 6830,
      "subject": 6831,
      "stir": 6832,
      "agu": 6833,
      "understood": 6834,
      "Potato": 6835,
      "Turn": 6836,
      "excus": 6837,
      "2012": 6838,
      "bands": 6839,
      "nes": 6840,
      "Jason": 6841,
      "timately": 6842,
      "hetto": 6843,
      "inspe": 6844,
      "Should": 6845,
      "improved": 6846,
      "obno": 6847,
      "Waited": 6848,
      "cheeses": 6849,
      "Total": 6850,
      "tossed": 6851,
      "Either": 6852,
      "tration": 6853,
      "rank": 6854,
      "lli": 6855,
      "messy": 6856,
      "Space": 6857,
      "rier": 6858,
      "soap": 6859,
      "increase": 6860,
      "lied": 6861,
      "becoming": 6862,
      "ota": 6863,
      "overpower": 6864,
      "costum": 6865,
      "icht": 6866,
      "blind": 6867,
      "opens": 6868,
      "Southern": 6869,
      "Bak": 6870,
      "lly": 6871,
      "ole": 6872,
      "diss": 6873,
      "sne": 6874,
      "itation": 6875,
      "ader": 6876,
      "cember": 6877,
      "barbe": 6878,
      "Road": 6879,
      "happily": 6880,
      "beauty": 6881,
      "soul": 6882,
      "Costco": 6883,
      "Sen": 6884,
      "excess": 6885,
      "Sauce": 6886,
      "YO": 6887,
      "Target": 6888,
      "everybody": 6889,
      "wraps": 6890,
      "resem": 6891,
      "attended": 6892,
      "gran": 6893,
      "communication": 6894,
      "sooo": 6895,
      "Luxor": 6896,
      "sin": 6897,
      "franch": 6898,
      "Korea": 6899,
      "crowds": 6900,
      "breaking": 6901,
      "reviewer": 6902,
      "paperwork": 6903,
      "trees": 6904,
      "updated": 6905,
      "listening": 6906,
      "hospit": 6907,
      "andy": 6908,
      "consisted": 6909,
      "Made": 6910,
      "nFinally": 6911,
      "appointments": 6912,
      "iner": 6913,
      "PA": 6914,
      "frame": 6915,
      "Under": 6916,
      "Fast": 6917,
      "uum": 6918,
      "beware": 6919,
      "root": 6920,
      "Orange": 6921,
      "ignore": 6922,
      "mignon": 6923,
      "unpleasant": 6924,
      "iversity": 6925,
      "dre": 6926,
      "allows": 6927,
      "Art": 6928,
      "nWill": 6929,
      "depress": 6930,
      "ships": 6931,
      "Rib": 6932,
      "agger": 6933,
      "u00f1": 6934,
      "CD": 6935,
      "progress": 6936,
      "dinners": 6937,
      "Life": 6938,
      "prot": 6939,
      "effective": 6940,
      "ANT": 6941,
      "FC": 6942,
      "cherry": 6943,
      "cleaner": 6944,
      "Palazzo": 6945,
      "washing": 6946,
      "chipotle": 6947,
      "reports": 6948,
      "theatre": 6949,
      "premium": 6950,
      "dull": 6951,
      "Something": 6952,
      "pil": 6953,
      "material": 6954,
      "diagno": 6955,
      "December": 6956,
      "facial": 6957,
      "jer": 6958,
      "chorizo": 6959,
      "dialogue": 6960,
      "luggage": 6961,
      "thrilled": 6962,
      "poutine": 6963,
      "nigiri": 6964,
      "intellig": 6965,
      "Norm": 6966,
      "GHT": 6967,
      "culture": 6968,
      "heav": 6969,
      "EU": 6970,
      "italian": 6971,
      "Think": 6972,
      "advised": 6973,
      "Found": 6974,
      "insul": 6975,
      "evil": 6976,
      "Law": 6977,
      "MU": 6978,
      "ural": 6979,
      "attached": 6980,
      "WASHINGTON": 6981,
      "tang": 6982,
      "stere": 6983,
      "University": 6984,
      "thousands": 6985,
      "Sin": 6986,
      "Ton": 6987,
      "Seat": 6988,
      "tree": 6989,
      "cheeseburger": 6990,
      "dealership": 6991,
      "arette": 6992,
      "Granted": 6993,
      "!)\\": 6994,
      "Jones": 6995,
      "som": 6996,
      "counting": 6997,
      "temporary": 6998,
      "Cream": 6999,
      "pint": 7000,
      "buttery": 7001,
      "fuel": 7002,
      "Fant": 7003,
      "Jer": 7004,
      "grass": 7005,
      "cases": 7006,
      "Carol": 7007,
      "RU": 7008,
      "senior": 7009,
      "noted": 7010,
      "surrounding": 7011,
      "bc": 7012,
      "subs": 7013,
      "cies": 7014,
      "cheapest": 7015,
      "wireless": 7016,
      "earnings": 7017,
      "politely": 7018,
      "balcon": 7019,
      "Dam": 7020,
      "Pac": 7021,
      "regardless": 7022,
      "Angeles": 7023,
      "dropping": 7024,
      "WAYS": 7025,
      "Phi": 7026,
      "hooked": 7027,
      "cleanliness": 7028,
      "hitting": 7029,
      "sangria": 7030,
      "March": 7031,
      "lized": 7032,
      "urge": 7033,
      "48": 7034,
      "independ": 7035,
      "refri": 7036,
      "completed": 7037,
      "nYes": 7038,
      "vil": 7039,
      "nOk": 7040,
      "June": 7041,
      "nature": 7042,
      "Turkey": 7043,
      "leather": 7044,
      "iger": 7045,
      "ratings": 7046,
      "swimming": 7047,
      "Jose": 7048,
      "Ori": 7049,
      "alter": 7050,
      "obli": 7051,
      "assistant": 7052,
      "Win": 7053,
      "cere": 7054,
      "bottled": 7055,
      "Mush": 7056,
      "disappeared": 7057,
      "Chili": 7058,
      "begins": 7059,
      "bugs": 7060,
      "receiving": 7061,
      "comparable": 7062,
      "jito": 7063,
      "nine": 7064,
      "iano": 7065,
      "rug": 7066,
      "booking": 7067,
      "Dog": 7068,
      "Totally": 7069,
      "unexpected": 7070,
      "poon": 7071,
      "pitcher": 7072,
      "patch": 7073,
      "traveling": 7074,
      "coleslaw": 7075,
      "drank": 7076,
      "Flamingo": 7077,
      "Ur": 7078,
      ")...": 7079,
      "bat": 7080,
      "screens": 7081,
      "Beautiful": 7082,
      "hide": 7083,
      "troops": 7084,
      "wished": 7085,
      "Philly": 7086,
      "status": 7087,
      "emergency": 7088,
      "Diego": 7089,
      "stating": 7090,
      "somebody": 7091,
      "Cris": 7092,
      "II": 7093,
      "Olive": 7094,
      "mand": 7095,
      "cared": 7096,
      "victim": 7097,
      "Far": 7098,
      "Tacos": 7099,
      "cousin": 7100,
      "artist": 7101,
      "blew": 7102,
      "Hum": 7103,
      "fest": 7104,
      "cleared": 7105,
      "udge": 7106,
      "ission": 7107,
      "parked": 7108,
      "presence": 7109,
      "Yan": 7110,
      "arrange": 7111,
      "repairs": 7112,
      "Yet": 7113,
      "welcomed": 7114,
      "Margar": 7115,
      "OOOO": 7116,
      "HAVE": 7117,
      "supplies": 7118,
      "financial": 7119,
      "Rese": 7120,
      "aled": 7121,
      "hew": 7122,
      "acher": 7123,
      "gging": 7124,
      "lousy": 7125,
      "aka": 7126,
      "Americans": 7127,
      "kicked": 7128,
      "labor": 7129,
      "err": 7130,
      "embarrassed": 7131,
      "Mall": 7132,
      "tum": 7133,
      "soph": 7134,
      "hoped": 7135,
      "hallway": 7136,
      "):": 7137,
      "Much": 7138,
      "cise": 7139,
      "steep": 7140,
      "taxi": 7141,
      "Cle": 7142,
      "histor": 7143,
      "Hen": 7144,
      "border": 7145,
      "stays": 7146,
      "limit": 7147,
      "Research": 7148,
      "enos": 7149,
      "seared": 7150,
      "mimo": 7151,
      "ufact": 7152,
      "holic": 7153,
      "strug": 7154,
      "DEL": 7155,
      "indoor": 7156,
      "deposit": 7157,
      "spark": 7158,
      "cinema": 7159,
      "Sign": 7160,
      "supply": 7161,
      "dancers": 7162,
      "memories": 7163,
      "WILL": 7164,
      "Bagh": 7165,
      "Tuna": 7166,
      "Wine": 7167,
      "moon": 7168,
      "battery": 7169,
      "Earth": 7170,
      "Cont": 7171,
      "Blood": 7172,
      "********": 7173,
      "Obviously": 7174,
      "chains": 7175,
      "IOUS": 7176,
      "occur": 7177,
      "Baghdad": 7178,
      "inte": 7179,
      "atsu": 7180,
      "brary": 7181,
      "identi": 7182,
      "reng": 7183,
      "roo": 7184,
      "ilty": 7185,
      ".......": 7186,
      "superior": 7187,
      "couples": 7188,
      "argue": 7189,
      "calories": 7190,
      "accurate": 7191,
      "genre": 7192,
      "advertising": 7193,
      "Subway": 7194,
      "Wr": 7195,
      "arrest": 7196,
      "shoulder": 7197,
      "THEY": 7198,
      "Fry": 7199,
      "cafet": 7200,
      "PeopleSoft": 7201,
      "eur": 7202,
      "rust": 7203,
      "limp": 7204,
      "Associ": 7205,
      "hrs": 7206,
      "clientele": 7207,
      "FUL": 7208,
      "Matt": 7209,
      "UT": 7210,
      "meatball": 7211,
      "Dom": 7212,
      "Gaza": 7213,
      "flights": 7214,
      "nose": 7215,
      "pregn": 7216,
      "Brown": 7217,
      "WA": 7218,
      "ech": 7219,
      "blonde": 7220,
      "weekday": 7221,
      "overwhelmed": 7222,
      "onics": 7223,
      "profession": 7224,
      "reflect": 7225,
      "inis": 7226,
      "clam": 7227,
      "Same": 7228,
      "region": 7229,
      "bels": 7230,
      "indul": 7231,
      "breads": 7232,
      "explos": 7233,
      "ucc": 7234,
      "sesame": 7235,
      "ott": 7236,
      "intended": 7237,
      "ruin": 7238,
      "ALWAYS": 7239,
      "apoint": 7240,
      "virt": 7241,
      "omelette": 7242,
      "amazed": 7243,
      "ith": 7244,
      "acity": 7245,
      "string": 7246,
      "boost": 7247,
      "economic": 7248,
      "reputation": 7249,
      "Thom": 7250,
      "beli": 7251,
      "actress": 7252,
      "chim": 7253,
      "esy": 7254,
      "tipped": 7255,
      "Fremont": 7256,
      "jar": 7257,
      "ista": 7258,
      "Atl": 7259,
      "?).": 7260,
      "fusion": 7261,
      "nar": 7262,
      "ost": 7263,
      "resto": 7264,
      "Ann": 7265,
      "Hur": 7266,
      "stops": 7267,
      "Short": 7268,
      "micro": 7269,
      "tequ": 7270,
      "requests": 7271,
      "Benedict": 7272,
      "SI": 7273,
      "poker": 7274,
      "starter": 7275,
      "itz": 7276,
      "trick": 7277,
      "admitted": 7278,
      "unfortunate": 7279,
      "Sky": 7280,
      "pharmac": 7281,
      "jalapeno": 7282,
      "LOT": 7283,
      "Um": 7284,
      "Buffalo": 7285,
      "Factory": 7286,
      "Fili": 7287,
      "Person": 7288,
      "bom": 7289,
      "refriger": 7290,
      "Press": 7291,
      "eh": 7292,
      "reveal": 7293,
      "driven": 7294,
      "bills": 7295,
      "cafeteria": 7296,
      "Card": 7297,
      "yster": 7298,
      "hated": 7299,
      "proced": 7300,
      "destination": 7301,
      "convinced": 7302,
      "choo": 7303,
      "Williams": 7304,
      "slide": 7305,
      "Ext": 7306,
      "exter": 7307,
      "Living": 7308,
      "max": 7309,
      "vacuum": 7310,
      "araoke": 7311,
      "liquid": 7312,
      "nEverything": 7313,
      "ample": 7314,
      "cran": 7315,
      "Decent": 7316,
      "utto": 7317,
      "trial": 7318,
      "DAY": 7319,
      "anal": 7320,
      "tongue": 7321,
      "Sho": 7322,
      "essentially": 7323,
      "span": 7324,
      "pushing": 7325,
      "thumbs": 7326,
      "discuss": 7327,
      "Curry": 7328,
      "flick": 7329,
      "calm": 7330,
      "attempts": 7331,
      "visible": 7332,
      "u00fc": 7333,
      "pumpkin": 7334,
      "Coast": 7335,
      "Stocks": 7336,
      "Tai": 7337,
      "alli": 7338,
      "lovers": 7339,
      "digital": 7340,
      "associate": 7341,
      "Lat": 7342,
      "nMaybe": 7343,
      "systems": 7344,
      "Chips": 7345,
      "eter": 7346,
      "Def": 7347,
      "chini": 7348,
      "shall": 7349,
      "domin": 7350,
      "sampler": 7351,
      "marinated": 7352,
      "TIM": 7353,
      "XS": 7354,
      "nervous": 7355,
      "painful": 7356,
      "Bon": 7357,
      "award": 7358,
      "Hou": 7359,
      "writer": 7360,
      "utch": 7361,
      "Vill": 7362,
      "ox": 7363,
      "alsamic": 7364,
      "ante": 7365,
      "injury": 7366,
      "pip": 7367,
      "del": 7368,
      "clock": 7369,
      "marks": 7370,
      "Fort": 7371,
      "Kerry": 7372,
      "mate": 7373,
      "mein": 7374,
      "frankly": 7375,
      "bowling": 7376,
      "obnoxious": 7377,
      "nSince": 7378,
      "ghetto": 7379,
      "January": 7380,
      "ray": 7381,
      "Basically": 7382,
      "exhibit": 7383,
      "ricane": 7384,
      "debit": 7385,
      "Lunch": 7386,
      "eager": 7387,
      "ien": 7388,
      "covers": 7389,
      "parmesan": 7390,
      "Circus": 7391,
      "lacks": 7392,
      "85": 7393,
      "Tower": 7394,
      "?!?": 7395,
      "PLACE": 7396,
      "layer": 7397,
      "Dessert": 7398,
      "scored": 7399,
      "Girl": 7400,
      "wasting": 7401,
      "ENT": 7402,
      "inju": 7403,
      "starters": 7404,
      "establishments": 7405,
      "cancelled": 7406,
      "WN": 7407,
      "lukewarm": 7408,
      "rented": 7409,
      "dealt": 7410,
      "Fox": 7411,
      ":-)": 7412,
      "ideas": 7413,
      "makeup": 7414,
      "nAnother": 7415,
      "corned": 7416,
      "volume": 7417,
      "cigarette": 7418,
      "Rain": 7419,
      "aught": 7420,
      "nDefinitely": 7421,
      "clams": 7422,
      "scot": 7423,
      "exceed": 7424,
      "nocchi": 7425,
      "!?": 7426,
      ";&": 7427,
      "Ray": 7428,
      "lesson": 7429,
      "ONG": 7430,
      "entists": 7431,
      "exit": 7432,
      "impec": 7433,
      "fishy": 7434,
      "musical": 7435,
      "Garlic": 7436,
      "nMe": 7437,
      "gled": 7438,
      "techn": 7439,
      "extended": 7440,
      "amazingly": 7441,
      "Hoo": 7442,
      "Pen": 7443,
      "nGo": 7444,
      "ensure": 7445,
      "importantly": 7446,
      "referred": 7447,
      "Sudan": 7448,
      "chunk": 7449,
      "attacks": 7450,
      "development": 7451,
      "stadium": 7452,
      "nightclub": 7453,
      "viewing": 7454,
      "dying": 7455,
      "providing": 7456,
      "nLet": 7457,
      "shooting": 7458,
      "desperate": 7459,
      "wave": 7460,
      "streng": 7461,
      "coat": 7462,
      "necessarily": 7463,
      "Germany": 7464,
      "refuse": 7465,
      "remains": 7466,
      "Pie": 7467,
      "Year": 7468,
      "meets": 7469,
      "mocr": 7470,
      "Foods": 7471,
      "nVery": 7472,
      "fredo": 7473,
      "lessly": 7474,
      "painting": 7475,
      "combined": 7476,
      "FIN": 7477,
      "church": 7478,
      "bouncers": 7479,
      "31": 7480,
      "toler": 7481,
      "unlimited": 7482,
      "powerful": 7483,
      "coworkers": 7484,
      "desire": 7485,
      "Fil": 7486,
      "Mediterranean": 7487,
      "Hopefully": 7488,
      "Business": 7489,
      "Seems": 7490,
      "NA": 7491,
      "spar": 7492,
      "Management": 7493,
      "inconvenience": 7494,
      "mystery": 7495,
      "locally": 7496,
      "license": 7497,
      "idiot": 7498,
      "Da": 7499,
      "balcony": 7500,
      "\\\"\".\\": 7501,
      "Normally": 7502,
      "div": 7503,
      "breaded": 7504,
      "CHE": 7505,
      "lam": 7506,
      "itter": 7507,
      "Inn": 7508,
      "Huge": 7509,
      "Sci": 7510,
      "Secret": 7511,
      "Peter": 7512,
      "eve": 7513,
      "vote": 7514,
      "union": 7515,
      "painted": 7516,
      "mechanic": 7517,
      "GR": 7518,
      "accent": 7519,
      "jeans": 7520,
      "ucchini": 7521,
      "planet": 7522,
      "Caesars": 7523,
      "bruschetta": 7524,
      "lich": 7525,
      "shout": 7526,
      "Cheap": 7527,
      "duty": 7528,
      "Mountain": 7529,
      "categ": 7530,
      "greeting": 7531,
      "destro": 7532,
      "campaign": 7533,
      "Jean": 7534,
      "consumer": 7535,
      "genuinely": 7536,
      "prescription": 7537,
      "inations": 7538,
      "andon": 7539,
      "peel": 7540,
      "Deal": 7541,
      "bouncer": 7542,
      "butt": 7543,
      "entiful": 7544,
      "responsible": 7545,
      "lored": 7546,
      "pride": 7547,
      "booze": 7548,
      "marinara": 7549,
      "guarantee": 7550,
      "ifts": 7551,
      "naan": 7552,
      "attendant": 7553,
      "gay": 7554,
      "nRe": 7555,
      "suits": 7556,
      "Pepper": 7557,
      "Pack": 7558,
      "stal": 7559,
      "boiled": 7560,
      "clin": 7561,
      "facilities": 7562,
      "Mirage": 7563,
      "grac": 7564,
      "Rid": 7565,
      "highlights": 7566,
      "improvement": 7567,
      "Linux": 7568,
      "spit": 7569,
      "sloppy": 7570,
      "ormous": 7571,
      "sees": 7572,
      "pra": 7573,
      "intage": 7574,
      "lasagna": 7575,
      "Dro": 7576,
      "mold": 7577,
      "THEN": 7578,
      "tz": 7579,
      "theirs": 7580,
      "trim": 7581,
      "satisfy": 7582,
      "pled": 7583,
      "mais": 7584,
      "Bowl": 7585,
      "Mur": 7586,
      "bare": 7587,
      "prevent": 7588,
      "shady": 7589,
      "regis": 7590,
      "sweetness": 7591,
      "balanced": 7592,
      "cierge": 7593,
      "Encore": 7594,
      "fails": 7595,
      "sers": 7596,
      "cord": 7597,
      "quit": 7598,
      "luxury": 7599,
      "certificate": 7600,
      "federal": 7601,
      "Put": 7602,
      "anybody": 7603,
      "sorts": 7604,
      "Queen": 7605,
      "estimate": 7606,
      "brick": 7607,
      "hhh": 7608,
      "Smo": 7609,
      "chick": 7610,
      "staring": 7611,
      "sket": 7612,
      "computers": 7613,
      "nOr": 7614,
      "technician": 7615,
      "iti": 7616,
      "presidential": 7617,
      "manufact": 7618,
      "199": 7619,
      "fajitas": 7620,
      "skept": 7621,
      "resist": 7622,
      "barrel": 7623,
      "raise": 7624,
      "funky": 7625,
      "warn": 7626,
      "Worth": 7627,
      "Phone": 7628,
      "Jeff": 7629,
      "goal": 7630,
      "Cosmopolitan": 7631,
      "Besides": 7632,
      "bour": 7633,
      "soaked": 7634,
      "cheer": 7635,
      "LONDON": 7636,
      "cooler": 7637,
      "Dave": 7638,
      "plentiful": 7639,
      "SA": 7640,
      "een": 7641,
      "everytime": 7642,
      "ax": 7643,
      "peak": 7644,
      "excl": 7645,
      "pril": 7646,
      "rab": 7647,
      "iP": 7648,
      "button": 7649,
      "pressed": 7650,
      "Yummy": 7651,
      "accompanied": 7652,
      "CAR": 7653,
      "horri": 7654,
      "magaz": 7655,
      "prove": 7656,
      "fitness": 7657,
      "Grilled": 7658,
      "Lem": 7659,
      "kim": 7660,
      "disput": 7661,
      "joined": 7662,
      "alafel": 7663,
      "Looking": 7664,
      "African": 7665,
      "prem": 7666,
      "collect": 7667,
      "setup": 7668,
      "End": 7669,
      "remarkable": 7670,
      "stare": 7671,
      "scrambled": 7672,
      "6pm": 7673,
      "Rose": 7674,
      "_photos": 7675,
      "vada": 7676,
      "pastrami": 7677,
      "Coke": 7678,
      "bin": 7679,
      "fal": 7680,
      "appt": 7681,
      "strongly": 7682,
      "featured": 7683,
      "jewelry": 7684,
      "Cam": 7685,
      "therefore": 7686,
      "visual": 7687,
      "carrot": 7688,
      "torn": 7689,
      "NOW": 7690,
      "irritated": 7691,
      "Gilbert": 7692,
      "remode": 7693,
      "curtain": 7694,
      "Cin": 7695,
      "boot": 7696,
      "ique": 7697,
      "loving": 7698,
      "goti": 7699,
      "sells": 7700,
      "UPD": 7701,
      "Eggs": 7702,
      "miserable": 7703,
      "zomb": 7704,
      "disrespect": 7705,
      "seasonal": 7706,
      "adventure": 7707,
      "Ah": 7708,
      "cub": 7709,
      "puff": 7710,
      "guilty": 7711,
      "highest": 7712,
      "guessing": 7713,
      "Airways": 7714,
      "33": 7715,
      "routine": 7716,
      "Jimmy": 7717,
      "stunning": 7718,
      "7pm": 7719,
      "rell": 7720,
      "intri": 7721,
      "monthly": 7722,
      "global": 7723,
      "subtle": 7724,
      "yelled": 7725,
      "Fantastic": 7726,
      "raspberry": 7727,
      "reject": 7728,
      "asure": 7729,
      "plum": 7730,
      "agency": 7731,
      "infl": 7732,
      "surely": 7733,
      "neighbors": 7734,
      "April": 7735,
      "vd": 7736,
      "attract": 7737,
      "unbelievable": 7738,
      "protein": 7739,
      "BIG": 7740,
      "sore": 7741,
      "pective": 7742,
      "Fu": 7743,
      "backed": 7744,
      "10pm": 7745,
      "filed": 7746,
      "Hilton": 7747,
      "answers": 7748,
      "Eat": 7749,
      "isu": 7750,
      "crush": 7751,
      "ianc": 7752,
      "FOOD": 7753,
      "esar": 7754,
      "Store": 7755,
      "stains": 7756,
      "melon": 7757,
      "sometime": 7758,
      "sciutto": 7759,
      "otta": 7760,
      "cry": 7761,
      "crime": 7762,
      "tucked": 7763,
      "suddenly": 7764,
      "Son": 7765,
      "kne": 7766,
      "inct": 7767,
      "brule": 7768,
      "tequila": 7769,
      "38": 7770,
      "hired": 7771,
      "ancy": 7772,
      "knowled": 7773,
      "efforts": 7774,
      "culinary": 7775,
      "Er": 7776,
      "weigh": 7777,
      "Chang": 7778,
      "Plenty": 7779,
      "MA": 7780,
      "accused": 7781,
      "gable": 7782,
      "croissant": 7783,
      "franchise": 7784,
      "arre": 7785,
      "watering": 7786,
      "lackluster": 7787,
      "golden": 7788,
      "ratio": 7789,
      "ILL": 7790,
      "Health": 7791,
      "NASA": 7792,
      "CT": 7793,
      "WW": 7794,
      "nThank": 7795,
      "nEven": 7796,
      "passen": 7797,
      "Easy": 7798,
      "voucher": 7799,
      "tas": 7800,
      "peas": 7801,
      "Hell": 7802,
      "u00e9ta": 7803,
      "Ive": 7804,
      "demon": 7805,
      "recipe": 7806,
      "YI": 7807,
      "nUnfortunately": 7808,
      "escape": 7809,
      "spare": 7810,
      "Seafood": 7811,
      "ccer": 7812,
      "hoo": 7813,
      "Stand": 7814,
      "alcoholic": 7815,
      "Ave": 7816,
      "Ku": 7817,
      "Federal": 7818,
      "cei": 7819,
      "affect": 7820,
      "grits": 7821,
      "Third": 7822,
      "rah": 7823,
      "Britain": 7824,
      "Dinner": 7825,
      "Butter": 7826,
      "outdated": 7827,
      "tique": 7828,
      "ideal": 7829,
      "weap": 7830,
      "sites": 7831,
      "freezer": 7832,
      "horribly": 7833,
      "survi": 7834,
      "Moon": 7835,
      "curious": 7836,
      "Spa": 7837,
      "Tao": 7838,
      "aggress": 7839,
      "\\\"\"...": 7840,
      "ounce": 7841,
      "Nov": 7842,
      "apparent": 7843,
      "artichoke": 7844,
      "balsamic": 7845,
      "developed": 7846,
      "AB": 7847,
      "Mass": 7848,
      "filter": 7849,
      "Note": 7850,
      "shaved": 7851,
      "assortment": 7852,
      "nSome": 7853,
      "ERS": 7854,
      "descending": 7855,
      "yle": 7856,
      "offensive": 7857,
      "blowing": 7858,
      "girlfriends": 7859,
      "Care": 7860,
      "nSecond": 7861,
      "rail": 7862,
      "orient": 7863,
      "veg": 7864,
      "prin": 7865,
      "angers": 7866,
      "Virgin": 7867,
      "spic": 7868,
      "proof": 7869,
      "knowledgable": 7870,
      "Sty": 7871,
      "cans": 7872,
      "spirit": 7873,
      "UPDATE": 7874,
      "intense": 7875,
      "Sour": 7876,
      "quaint": 7877,
      "newer": 7878,
      "sleeping": 7879,
      "earn": 7880,
      "Whole": 7881,
      "pillows": 7882,
      "Ret": 7883,
      "rim": 7884,
      "Michel": 7885,
      "alape": 7886,
      "outrageous": 7887,
      "Run": 7888,
      "proud": 7889,
      "ggle": 7890,
      "drivers": 7891,
      "Commun": 7892,
      "ASE": 7893,
      "matters": 7894,
      "forgettable": 7895,
      "beach": 7896,
      "upper": 7897,
      "aug": 7898,
      "purchasing": 7899,
      "investors": 7900,
      "supervisor": 7901,
      "Boo": 7902,
      "apt": 7903,
      "craf": 7904,
      "eld": 7905,
      "tee": 7906,
      "Gross": 7907,
      "fianc": 7908,
      "lake": 7909,
      "estim": 7910,
      "juices": 7911,
      "impeccable": 7912,
      "itty": 7913,
      "arter": 7914,
      "Thanksgiving": 7915,
      "nish": 7916,
      "holds": 7917,
      "drunken": 7918,
      "significant": 7919,
      "Houston": 7920,
      "annual": 7921,
      "operating": 7922,
      "summ": 7923,
      "fruits": 7924,
      "'\\": 7925,
      "Rad": 7926,
      "slots": 7927,
      "stickers": 7928,
      "lands": 7929,
      "stumbled": 7930,
      "minister": 7931,
      "paste": 7932,
      "viche": 7933,
      "Adam": 7934,
      "opt": 7935,
      "asser": 7936,
      "!!!!!!": 7937,
      "queen": 7938,
      "sampled": 7939,
      "vast": 7940,
      "agers": 7941,
      "golian": 7942,
      "roller": 7943,
      "constant": 7944,
      "abs": 7945,
      "cance": 7946,
      "companion": 7947,
      "fountains": 7948,
      "festival": 7949,
      "Tok": 7950,
      "nhttp": 7951,
      "pum": 7952,
      "Seattle": 7953,
      "achie": 7954,
      "complement": 7955,
      "Point": 7956,
      "pushy": 7957,
      "connection": 7958,
      "laptop": 7959,
      "2011": 7960,
      "installed": 7961,
      "Waitress": 7962,
      "zucchini": 7963,
      "particip": 7964,
      "Auto": 7965,
      "advise": 7966,
      "jumped": 7967,
      "solution": 7968,
      "runny": 7969,
      "Palms": 7970,
      "Hands": 7971,
      "kees": 7972,
      "indic": 7973,
      "Box": 7974,
      "Trust": 7975,
      "SAN": 7976,
      "azon": 7977,
      "Hill": 7978,
      "Reser": 7979,
      "Downtown": 7980,
      "Report": 7981,
      "MUST": 7982,
      "printed": 7983,
      "VO": 7984,
      "halfway": 7985,
      "sharp": 7986,
      "Side": 7987,
      "overrated": 7988,
      "drain": 7989,
      "shelf": 7990,
      "LOVED": 7991,
      "nDo": 7992,
      "happier": 7993,
      "listened": 7994,
      "Resort": 7995,
      "8pm": 7996,
      "nicht": 7997,
      "leans": 7998,
      "exer": 7999,
      "pos": 8000,
      "bug": 8001,
      "deserved": 8002,
      "accepted": 8003,
      "favourite": 8004,
      "Face": 8005,
      "LU": 8006,
      "avec": 8007,
      "returns": 8008,
      "pulling": 8009,
      "exterior": 8010,
      "Oct": 8011,
      "uu": 8012,
      "admission": 8013,
      "cles": 8014,
      "markets": 8015,
      "BLT": 8016,
      "invited": 8017,
      "nt": 8018,
      "arrives": 8019,
      "Guy": 8020,
      "river": 8021,
      "operation": 8022,
      "McDonalds": 8023,
      "branch": 8024,
      "everal": 8025,
      "couches": 8026,
      "Araf": 8027,
      "nWould": 8028,
      "macaroni": 8029,
      "cia": 8030,
      "reviewed": 8031,
      "vom": 8032,
      "Sol": 8033,
      "DR": 8034,
      "gus": 8035,
      "influ": 8036,
      "negoti": 8037,
      "feta": 8038,
      "almond": 8039,
      "breaks": 8040,
      "Comput": 8041,
      "smoothies": 8042,
      "selected": 8043,
      "benedict": 8044,
      "dans": 8045,
      "stink": 8046,
      "bisque": 8047,
      "Fred": 8048,
      "loo": 8049,
      "comic": 8050,
      "cod": 8051,
      "Extreme": 8052,
      "bee": 8053,
      "pear": 8054,
      "seemingly": 8055,
      "topus": 8056,
      "disgusted": 8057,
      "Yankees": 8058,
      "IF": 8059,
      "icide": 8060,
      "crum": 8061,
      "beats": 8062,
      "focused": 8063,
      "Pop": 8064,
      "Phil": 8065,
      "bly": 8066,
      "chops": 8067,
      "basketball": 8068,
      "lately": 8069,
      "vintage": 8070,
      "wis": 8071,
      "biz_photos": 8072,
      "integr": 8073,
      "parm": 8074,
      "nicest": 8075,
      "Brian": 8076,
      "maintained": 8077,
      "izon": 8078,
      "carte": 8079,
      "oon": 8080,
      "ARS": 8081,
      "FREE": 8082,
      "dramatic": 8083,
      "newsp": 8084,
      "elements": 8085,
      "Vo": 8086,
      "vina": 8087,
      "NOTHING": 8088,
      "leep": 8089,
      "pickled": 8090,
      "tots": 8091,
      "grain": 8092,
      "streets": 8093,
      "conclusion": 8094,
      "league": 8095,
      "Says": 8096,
      "Comple": 8097,
      "redeeming": 8098,
      "Ball": 8099,
      "ginal": 8100,
      "drawn": 8101,
      "Company": 8102,
      "Main": 8103,
      "evin": 8104,
      "Holy": 8105,
      "Eastern": 8106,
      "Doc": 8107,
      "apples": 8108,
      "chee": 8109,
      "realistic": 8110,
      "packaged": 8111,
      "organization": 8112,
      "scallop": 8113,
      "Asia": 8114,
      "nav": 8115,
      "...\\\"\"": 8116,
      "hable": 8117,
      "ultimately": 8118,
      "produced": 8119,
      "chowder": 8120,
      "heels": 8121,
      "condescending": 8122,
      "grub": 8123,
      "stew": 8124,
      "breading": 8125,
      "u00e9s": 8126,
      "utens": 8127,
      "hunt": 8128,
      "CEO": 8129,
      "squash": 8130,
      "transport": 8131,
      "Arafat": 8132,
      "Beat": 8133,
      "Chile": 8134,
      "depart": 8135,
      "viewer": 8136,
      "condiments": 8137,
      "reply": 8138,
      "Champion": 8139,
      "Darfur": 8140,
      "erie": 8141,
      "unnecessary": 8142,
      "Ask": 8143,
      "leaders": 8144,
      "instantly": 8145,
      "gage": 8146,
      "lb": 8147,
      "oma": 8148,
      "Carne": 8149,
      "Must": 8150,
      "tools": 8151,
      "factory": 8152,
      "END": 8153,
      "CP": 8154,
      "arro": 8155,
      "powder": 8156,
      "icures": 8157,
      "Pap": 8158,
      "paired": 8159,
      "popped": 8160,
      "executed": 8161,
      "ownership": 8162,
      "wooden": 8163,
      "gladly": 8164,
      "existent": 8165,
      "Fle": 8166,
      "Ly": 8167,
      "MP": 8168,
      "valid": 8169,
      "carrying": 8170,
      "incompetent": 8171,
      "igrette": 8172,
      "athy": 8173,
      "hearty": 8174,
      "stretch": 8175,
      "STAY": 8176,
      "measure": 8177,
      "MUCH": 8178,
      "ati": 8179,
      "bye": 8180,
      "?\\\"\"\\": 8181,
      "flies": 8182,
      "switched": 8183,
      "Wings": 8184,
      "ITE": 8185,
      "brownie": 8186,
      "Parmesan": 8187,
      "Les": 8188,
      "surrounded": 8189,
      "dangerous": 8190,
      "DIS": 8191,
      "ooper": 8192,
      "stream": 8193,
      "Fore": 8194,
      "pics": 8195,
      "Ros": 8196,
      "fled": 8197,
      "merchand": 8198,
      "Bring": 8199,
      "Burrito": 8200,
      "tacky": 8201,
      "250": 8202,
      "concierge": 8203,
      "drugs": 8204,
      "lil": 8205,
      "subpar": 8206,
      "stolen": 8207,
      "WITH": 8208,
      "heavily": 8209,
      "$.": 8210,
      "biscuit": 8211,
      "ths": 8212,
      "reserve": 8213,
      "image": 8214,
      "commit": 8215,
      "auch": 8216,
      "shitty": 8217,
      "assistance": 8218,
      "intrigu": 8219,
      "Slow": 8220,
      "bones": 8221,
      "alive": 8222,
      "foodie": 8223,
      "suites": 8224,
      "faced": 8225,
      "hipster": 8226,
      "occasionally": 8227,
      "Has": 8228,
      "conv": 8229,
      "Cajun": 8230,
      "bizarre": 8231,
      "attered": 8232,
      "nOnly": 8233,
      "aggressive": 8234,
      "artists": 8235,
      "ulation": 8236,
      "reliable": 8237,
      "Hy": 8238,
      "Oak": 8239,
      "Quick": 8240,
      "luckily": 8241,
      "array": 8242,
      "MAN": 8243,
      "NFL": 8244,
      "gf": 8245,
      "inspir": 8246,
      "9pm": 8247,
      "Kevin": 8248,
      "conveniently": 8249,
      "cracked": 8250,
      "satisfaction": 8251,
      "satur": 8252,
      "Sundays": 8253,
      "faith": 8254,
      "Tomato": 8255,
      "rian": 8256,
      "delayed": 8257,
      "nBe": 8258,
      "ounds": 8259,
      "dipped": 8260,
      "Tour": 8261,
      "matt": 8262,
      "Dollar": 8263,
      "preparation": 8264,
      "staple": 8265,
      "themed": 8266,
      "magn": 8267,
      "ahi": 8268,
      "spam": 8269,
      "insult": 8270,
      "Hawaii": 8271,
      "coworker": 8272,
      "iPod": 8273,
      "falafel": 8274,
      "fraud": 8275,
      "diff": 8276,
      "Series": 8277,
      "Tokyo": 8278,
      "OH": 8279,
      "Honey": 8280,
      "Tit": 8281,
      "century": 8282,
      "scare": 8283,
      "creating": 8284,
      "succeed": 8285,
      "Ron": 8286,
      "boat": 8287,
      "approxim": 8288,
      "mixture": 8289,
      "techni": 8290,
      "marketing": 8291,
      "YES": 8292,
      "scan": 8293,
      "isa": 8294,
      "library": 8295,
      "iki": 8296,
      "skeptical": 8297,
      "Hun": 8298,
      "Sony": 8299,
      "toes": 8300,
      "alley": 8301,
      "peach": 8302,
      "horrend": 8303,
      "Monte": 8304,
      "smoky": 8305,
      "34": 8306,
      "5pm": 8307,
      "Fashion": 8308,
      "bie": 8309,
      "HOW": 8310,
      "yelpers": 8311,
      "iana": 8312,
      "hookah": 8313,
      "Carolina": 8314,
      "WR": 8315,
      "gut": 8316,
      "Desert": 8317,
      "brulee": 8318,
      "ceviche": 8319,
      "purse": 8320,
      "grounds": 8321,
      "u00fcr": 8322,
      "knocked": 8323,
      "campus": 8324,
      "raved": 8325,
      "narrow": 8326,
      "Hop": 8327,
      "TY": 8328,
      "Table": 8329,
      "cities": 8330,
      "opposed": 8331,
      "Paradise": 8332,
      "nurse": 8333,
      "Set": 8334,
      "nThanks": 8335,
      "irt": 8336,
      "smiling": 8337,
      "attending": 8338,
      "performers": 8339,
      "CAN": 8340,
      "ike": 8341,
      "hike": 8342,
      "Fit": 8343,
      "tile": 8344,
      "eks": 8345,
      "messages": 8346,
      "repeatedly": 8347,
      "Ill": 8348,
      "smother": 8349,
      "u00f6": 8350,
      "School": 8351,
      "independent": 8352,
      "Things": 8353,
      "mpoo": 8354,
      "blueberry": 8355,
      "pino": 8356,
      "Until": 8357,
      "remaining": 8358,
      "800": 8359,
      "vit": 8360,
      "oty": 8361,
      "guide": 8362,
      "newly": 8363,
      "Bobby": 8364,
      "plants": 8365,
      "laws": 8366,
      "Bart": 8367,
      "poke": 8368,
      "conco": 8369,
      "Max": 8370,
      "atown": 8371,
      "Western": 8372,
      "maple": 8373,
      "yards": 8374,
      "asha": 8375,
      "covering": 8376,
      "Fair": 8377,
      "gnocchi": 8378,
      "karaoke": 8379,
      "Expect": 8380,
      "swing": 8381,
      "Pink": 8382,
      "toys": 8383,
      "Pass": 8384,
      "revol": 8385,
      "ders": 8386,
      "mental": 8387,
      "surd": 8388,
      "choosing": 8389,
      "ec": 8390,
      "sip": 8391,
      "mony": 8392,
      "amounts": 8393,
      "AME": 8394,
      "Dead": 8395,
      "Fro": 8396,
      "ller": 8397,
      "wonderfully": 8398,
      "elegant": 8399,
      "Village": 8400,
      "Bat": 8401,
      "mojito": 8402,
      "Marquee": 8403,
      "informative": 8404,
      "soldiers": 8405,
      "endless": 8406,
      "knot": 8407,
      "beit": 8408,
      "crave": 8409,
      "interrup": 8410,
      "gaming": 8411,
      "Guys": 8412,
      "accidentally": 8413,
      "ffle": 8414,
      "determin": 8415,
      "chocol": 8416,
      "Commission": 8417,
      "Ramen": 8418,
      "roles": 8419,
      "Valent": 8420,
      "Located": 8421,
      "fucking": 8422,
      "Cow": 8423,
      "device": 8424,
      "Beach": 8425,
      "douche": 8426,
      "atro": 8427,
      "colored": 8428,
      "ski": 8429,
      "uzz": 8430,
      "ONT": 8431,
      "1000": 8432,
      "birds": 8433,
      "5th": 8434,
      "Panda": 8435,
      "Si": 8436,
      "Department": 8437,
      "prix": 8438,
      "ahoo": 8439,
      "jalape": 8440,
      "link": 8441,
      "wipe": 8442,
      "divine": 8443,
      "edges": 8444,
      "aping": 8445,
      "defense": 8446,
      "false": 8447,
      "couldnt": 8448,
      "adorable": 8449,
      "Royal": 8450,
      "naked": 8451,
      "Yuck": 8452,
      "lorette": 8453,
      "pickle": 8454,
      "confident": 8455,
      "Family": 8456,
      "Stri": 8457,
      "Social": 8458,
      "battered": 8459,
      "eyebrows": 8460,
      "automatically": 8461,
      "vendors": 8462,
      "bout": 8463,
      "Mind": 8464,
      "trio": 8465,
      "timing": 8466,
      "Consider": 8467,
      "meth": 8468,
      "habit": 8469,
      "ghost": 8470,
      ")!": 8471,
      "Jen": 8472,
      "ani": 8473,
      "countries": 8474,
      "Sales": 8475,
      "vive": 8476,
      "shine": 8477,
      "horse": 8478,
      "struck": 8479,
      "records": 8480,
      "courtesy": 8481,
      "harsh": 8482,
      "pregnant": 8483,
      "ij": 8484,
      "cardboard": 8485,
      "promising": 8486,
      "Africa": 8487,
      "dread": 8488,
      "lted": 8489,
      "bananas": 8490,
      "Oscar": 8491,
      "incorrect": 8492,
      "sodas": 8493,
      "phy": 8494,
      "hostesses": 8495,
      "Miami": 8496,
      "deciding": 8497,
      "denied": 8498,
      "Classic": 8499,
      "belief": 8500,
      "enses": 8501,
      "nBottom": 8502,
      "SM": 8503,
      "Test": 8504,
      "yuck": 8505,
      "Rude": 8506,
      "shade": 8507,
      "dealers": 8508,
      "queso": 8509,
      "amongst": 8510,
      "TIME": 8511,
      "cof": 8512,
      "chen": 8513,
      "ament": 8514,
      "REAL": 8515,
      "FORE": 8516,
      "flavour": 8517,
      "hub": 8518,
      "itary": 8519,
      "shipping": 8520,
      "Republic": 8521,
      "predictable": 8522,
      "Ford": 8523,
      "drench": 8524,
      "rides": 8525,
      "closes": 8526,
      "cabin": 8527,
      "brews": 8528,
      "fitting": 8529,
      "thro": 8530,
      "cob": 8531,
      "Power": 8532,
      "Wend": 8533,
      "relig": 8534,
      "storm": 8535,
      "DD": 8536,
      "zo": 8537,
      "stall": 8538,
      "merchandise": 8539,
      "Book": 8540,
      "nand": 8541,
      "Spain": 8542,
      "inches": 8543,
      "valent": 8544,
      "Cut": 8545,
      "shampoo": 8546,
      "drizz": 8547,
      "notes": 8548,
      "anyon": 8549,
      "carried": 8550,
      "USE": 8551,
      "STE": 8552,
      "excite": 8553,
      "bankrupt": 8554,
      "Tha": 8555,
      "ieties": 8556,
      "reaction": 8557,
      "estic": 8558,
      "lers": 8559,
      "kel": 8560,
      "brands": 8561,
      "nWent": 8562,
      "Overpriced": 8563,
      "utensils": 8564,
      "DID": 8565,
      "sits": 8566,
      "lyn": 8567,
      "zoo": 8568,
      "abob": 8569,
      "causing": 8570,
      "ingredient": 8571,
      "prosciutto": 8572,
      "crude": 8573,
      "shelves": 8574,
      "RUDE": 8575,
      "horrendous": 8576,
      "esdays": 8577,
      "anky": 8578,
      "Orleans": 8579,
      "fave": 8580,
      "absurd": 8581,
      "allowing": 8582,
      "substitute": 8583,
      "Lind": 8584,
      "Several": 8585,
      "mut": 8586,
      "mort": 8587,
      "understaffed": 8588,
      "pickup": 8589,
      "palate": 8590,
      "announce": 8591,
      "accompany": 8592,
      "justify": 8593,
      "Thomas": 8594,
      "vinaigrette": 8595,
      "quet": 8596,
      "THER": 8597,
      "skinny": 8598,
      "science": 8599,
      "eu": 8600,
      "storage": 8601,
      ").<": 8602,
      "sooner": 8603,
      "flip": 8604,
      "relief": 8605,
      "definite": 8606,
      "astro": 8607,
      "ateur": 8608,
      "igner": 8609,
      "processed": 8610,
      "bucket": 8611,
      "puppy": 8612,
      "commented": 8613,
      "ckey": 8614,
      "Nevada": 8615,
      "Lake": 8616,
      "exagger": 8617,
      "preh": 8618,
      "patience": 8619,
      "Roy": 8620,
      "barbecue": 8621,
      "Without": 8622,
      "GET": 8623,
      "HOT": 8624,
      "dissapoint": 8625,
      "chosen": 8626,
      "munch": 8627,
      "icle": 8628,
      "owell": 8629,
      "gear": 8630,
      "nPros": 8631,
      "underwhelming": 8632,
      "Foot": 8633,
      "dare": 8634,
      "auf": 8635,
      "shaped": 8636,
      "sexual": 8637,
      "Bal": 8638,
      "Bistro": 8639,
      "ait": 8640,
      "logical": 8641,
      "priority": 8642,
      "army": 8643,
      "nG": 8644,
      "nN": 8645,
      "tenders": 8646,
      "wee": 8647,
      "confl": 8648,
      "locker": 8649,
      "pharmacy": 8650,
      "Eli": 8651,
      "lab": 8652,
      "lamp": 8653,
      "delivers": 8654,
      "tious": 8655,
      "amid": 8656,
      "visitors": 8657,
      "distri": 8658,
      "Flavor": 8659,
      "remained": 8660,
      "LS": 8661,
      "seek": 8662,
      "panini": 8663,
      "damaged": 8664,
      "Brad": 8665,
      "ears": 8666,
      "30am": 8667,
      "Decor": 8668,
      "80s": 8669,
      "responsibility": 8670,
      "DER": 8671,
      "lined": 8672,
      "american": 8673,
      "Extremely": 8674,
      "navig": 8675,
      "INE": 8676,
      "billing": 8677,
      "________": 8678,
      "injured": 8679,
      "lasted": 8680,
      "Quality": 8681,
      "Computer": 8682,
      "Flo": 8683,
      "Jun": 8684,
      "OVER": 8685,
      "inconsistent": 8686,
      "stro": 8687,
      "helorette": 8688,
      "deck": 8689,
      "!!!!\\": 8690,
      "Harris": 8691,
      "tale": 8692,
      "oust": 8693,
      "Find": 8694,
      "orn": 8695,
      "goodies": 8696,
      "salsas": 8697,
      "route": 8698,
      "EE": 8699,
      "esc": 8700,
      "utella": 8701,
      "mattress": 8702,
      "Rac": 8703,
      "Shi": 8704,
      "rick": 8705,
      "veter": 8706,
      "Asked": 8707,
      "failure": 8708,
      "Pasta": 8709,
      "lback": 8710,
      "zens": 8711,
      "2000": 8712,
      "dete": 8713,
      "woke": 8714,
      "Dire": 8715,
      "washer": 8716,
      "salons": 8717,
      "styles": 8718,
      "dryer": 8719,
      "inspection": 8720,
      "cats": 8721,
      "liest": 8722,
      "OULD": 8723,
      "Host": 8724,
      "nons": 8725,
      "native": 8726,
      "elle": 8727,
      "crying": 8728,
      "pier": 8729,
      "user": 8730,
      "closet": 8731,
      "Wonderful": 8732,
      "Tonight": 8733,
      "Fed": 8734,
      "lette": 8735,
      "Johnny": 8736,
      "Menu": 8737,
      "DA": 8738,
      "tf": 8739,
      "ishing": 8740,
      "shorts": 8741,
      "cornbread": 8742,
      "Anyone": 8743,
      "practices": 8744,
      "Office": 8745,
      "hence": 8746,
      "quest": 8747,
      "handling": 8748,
      "utterly": 8749,
      "launched": 8750,
      "Brazilian": 8751,
      "wasabi": 8752,
      "belt": 8753,
      "umpy": 8754,
      "uteed": 8755,
      "ipp": 8756,
      "reviewing": 8757,
      "Search": 8758,
      "Wife": 8759,
      "competi": 8760,
      "Awful": 8761,
      "SUP": 8762,
      "sigh": 8763,
      "inger": 8764,
      "mug": 8765,
      "u00d": 8766,
      "ppl": 8767,
      "brea": 8768,
      "Unlike": 8769,
      "fortune": 8770,
      "carnitas": 8771,
      "stein": 8772,
      "rights": 8773,
      "porter": 8774,
      "genius": 8775,
      "rally": 8776,
      "confusion": 8777,
      "conversations": 8778,
      "System": 8779,
      "dime": 8780,
      "anged": 8781,
      "instant": 8782,
      "Stayed": 8783,
      "NC": 8784,
      "aken": 8785,
      "2006": 8786,
      "TERRIBLE": 8787,
      "alleged": 8788,
      "zels": 8789,
      "hostage": 8790,
      "catfish": 8791,
      "Davis": 8792,
      "esteak": 8793,
      "Lor": 8794,
      "oyster": 8795,
      "rus": 8796,
      "trays": 8797,
      "spilled": 8798,
      "conditioning": 8799,
      "Cake": 8800,
      "Jes": 8801,
      "Wis": 8802,
      "nels": 8803,
      "burning": 8804,
      "u00e7": 8805,
      "equal": 8806,
      "depth": 8807,
      "Hurricane": 8808,
      "Whe": 8809,
      "transaction": 8810,
      "Veget": 8811,
      "Leg": 8812,
      "smokey": 8813,
      "restrooms": 8814,
      "seeking": 8815,
      "epic": 8816,
      "scrub": 8817,
      "execution": 8818,
      "napkin": 8819,
      "Large": 8820,
      "fas": 8821,
      "assem": 8822,
      "cean": 8823,
      "icket": 8824,
      "discounted": 8825,
      "alloween": 8826,
      "Mars": 8827,
      "directions": 8828,
      "Party": 8829,
      "nous": 8830,
      "bler": 8831,
      "ASU": 8832,
      "Complete": 8833,
      "Tw": 8834,
      "dun": 8835,
      "nament": 8836,
      "frustration": 8837,
      "Ul": 8838,
      "cole": 8839,
      "protect": 8840,
      "electric": 8841,
      "adventur": 8842,
      "Double": 8843,
      "albeit": 8844,
      "massages": 8845,
      "Hall": 8846,
      "sheet": 8847,
      "mates": 8848,
      "enormous": 8849,
      "varieties": 8850,
      "daughters": 8851,
      "ivity": 8852,
      "excuses": 8853,
      "Cold": 8854,
      "touching": 8855,
      "critical": 8856,
      "hospitality": 8857,
      "unately": 8858,
      "decade": 8859,
      "teams": 8860,
      "Cheesecake": 8861,
      "Op": 8862,
      "wre": 8863,
      "tears": 8864,
      "tangy": 8865,
      "greatly": 8866,
      "snap": 8867,
      "channel": 8868,
      "crimin": 8869,
      "physical": 8870,
      "confidence": 8871,
      "approximately": 8872,
      "Youn": 8873,
      "utions": 8874,
      "cently": 8875,
      "spoken": 8876,
      "crawfish": 8877,
      "++": 8878,
      "Ate": 8879,
      "Kong": 8880,
      "clever": 8881,
      "Season": 8882,
      "activities": 8883,
      "120": 8884,
      "600": 8885,
      "spiced": 8886,
      "Arri": 8887,
      "beaten": 8888,
      "harder": 8889,
      "peanuts": 8890,
      "costumes": 8891,
      "PL": 8892,
      "aioli": 8893,
      "simpl": 8894,
      "kills": 8895,
      "Mean": 8896,
      "Looks": 8897,
      "Duck": 8898,
      "fty": 8899,
      "sunda": 8900,
      "competitive": 8901,
      "Jackson": 8902,
      "raving": 8903,
      "rear": 8904,
      "archite": 8905,
      "capable": 8906,
      "plaza": 8907,
      "iffer": 8908,
      "lighter": 8909,
      "whoever": 8910,
      "diamond": 8911,
      "diverse": 8912,
      "Cu": 8913,
      "Cook": 8914,
      "terminal": 8915,
      "itionally": 8916,
      "Given": 8917,
      "DC": 8918,
      "Mem": 8919,
      "Onion": 8920,
      "Atmosphere": 8921,
      "Amazon": 8922,
      "Fine": 8923,
      "Mob": 8924,
      "n6": 8925,
      "GF": 8926,
      "edam": 8927,
      "neath": 8928,
      "uben": 8929,
      "sticking": 8930,
      "capacity": 8931,
      "convincing": 8932,
      "downright": 8933,
      "Chief": 8934,
      "Wireless": 8935,
      "advertise": 8936,
      "Cra": 8937,
      "bby": 8938,
      "Profit": 8939,
      "Pita": 8940,
      "hase": 8941,
      "Chinatown": 8942,
      "microwaved": 8943,
      "Cant": 8944,
      "NI": 8945,
      "shield": 8946,
      "discounts": 8947,
      "octopus": 8948,
      "tube": 8949,
      "Sept": 8950,
      "sorbet": 8951,
      "nLike": 8952,
      "sont": 8953,
      "Kill": 8954,
      "proved": 8955,
      "needing": 8956,
      "gia": 8957,
      "doesnt": 8958,
      "Quite": 8959,
      "AWAY": 8960,
      "emailed": 8961,
      "42": 8962,
      "Dutch": 8963,
      "Vie": 8964,
      "flowing": 8965,
      "freshness": 8966,
      "onda": 8967,
      "neglect": 8968,
      "bay": 8969,
      "latter": 8970,
      "lava": 8971,
      "onna": 8972,
      "tos": 8973,
      "bitch": 8974,
      "spaces": 8975,
      "CI": 8976,
      "Hubby": 8977,
      "smiles": 8978,
      "Thankfully": 8979,
      "loads": 8980,
      "Camp": 8981,
      "Sar": 8982,
      "myster": 8983,
      "waits": 8984,
      "Andy": 8985,
      "feelings": 8986,
      "bien": 8987,
      "Daniel": 8988,
      "nUpon": 8989,
      "ifying": 8990,
      "clu": 8991,
      "STILL": 8992,
      "198": 8993,
      "squeezed": 8994,
      "freakin": 8995,
      "skewers": 8996,
      "Sher": 8997,
      "nHad": 8998,
      "lips": 8999,
      "cos": 9000,
      "Brook": 9001,
      "Exp": 9002,
      "confirmation": 9003,
      "Spoon": 9004,
      "soccer": 9005,
      "barber": 9006,
      "milkshake": 9007,
      "edamame": 9008,
      "unve": 9009,
      "trap": 9010,
      "gee": 9011,
      "dones": 9012,
      "structure": 9013,
      "hesitant": 9014,
      "nAlthough": 9015,
      "remake": 9016,
      "wonton": 9017,
      "retro": 9018,
      "capt": 9019,
      "Eve": 9020,
      "learning": 9021,
      "industrial": 9022,
      "sensitive": 9023,
      "convince": 9024,
      "LP": 9025,
      "dinning": 9026,
      "decorations": 9027,
      "increased": 9028,
      "smothered": 9029,
      "LLE": 9030,
      "2010": 9031,
      "motor": 9032,
      "graphic": 9033,
      "preparing": 9034,
      "3pm": 9035,
      "Sir": 9036,
      "lle": 9037,
      "quis": 9038,
      "profits": 9039,
      "HOP": 9040,
      "Airl": 9041,
      "arug": 9042,
      "secure": 9043,
      "forecast": 9044,
      "floating": 9045,
      "aire": 9046,
      "rounds": 9047,
      "excessive": 9048,
      "Hut": 9049,
      "Mich": 9050,
      "Stop": 9051,
      "rese": 9052,
      "leak": 9053,
      "Mongolian": 9054,
      "matched": 9055,
      "detailed": 9056,
      "boutique": 9057,
      "!<": 9058,
      "QU": 9059,
      "katsu": 9060,
      "emails": 9061,
      "approved": 9062,
      "Eric": 9063,
      "ardless": 9064,
      "pounds": 9065,
      "btw": 9066,
      "salesman": 9067,
      "flatbread": 9068,
      "Cher": 9069,
      "nNeedless": 9070,
      "haust": 9071,
      "drum": 9072,
      "Stewart": 9073,
      "cinemato": 9074,
      "Mix": 9075,
      "ji": 9076,
      "flood": 9077,
      "hhhh": 9078,
      "muffins": 9079,
      "vest": 9080,
      "roach": 9081,
      "quir": 9082,
      "reluct": 9083,
      "Blvd": 9084,
      "Charlie": 9085,
      "heavenly": 9086,
      "virtually": 9087,
      "Bag": 9088,
      "Based": 9089,
      "worries": 9090,
      "bodies": 9091,
      "Beware": 9092,
      "northern": 9093,
      "Burgers": 9094,
      "Martin": 9095,
      "Hit": 9096,
      "tool": 9097,
      "Hash": 9098,
      "enced": 9099,
      "fashioned": 9100,
      "Turns": 9101,
      "Airlines": 9102,
      "Walked": 9103,
      "wat": 9104,
      "excitement": 9105,
      "tified": 9106,
      "monster": 9107,
      "USA": 9108,
      "element": 9109,
      "Danny": 9110,
      "squeeze": 9111,
      "gradu": 9112,
      ");": 9113,
      "Cla": 9114,
      "jet": 9115,
      "exotic": 9116,
      "carto": 9117,
      "adventurous": 9118,
      "icles": 9119,
      "liver": 9120,
      "resched": 9121,
      "cio": 9122,
      "quarters": 9123,
      "explore": 9124,
      "gag": 9125,
      "tiram": 9126,
      "ulted": 9127,
      "u00e9cor": 9128,
      "chester": 9129,
      "Tam": 9130,
      "edy": 9131,
      "guns": 9132,
      "Ash": 9133,
      "lif": 9134,
      "justice": 9135,
      "underneath": 9136,
      "evidence": 9137,
      "Johnson": 9138,
      "questioned": 9139,
      "Years": 9140,
      "Bottom": 9141,
      "Kelly": 9142,
      "renew": 9143,
      "acrob": 9144,
      "grape": 9145,
      "consult": 9146,
      "caramelized": 9147,
      "Bun": 9148,
      "confront": 9149,
      "alas": 9150,
      "tape": 9151,
      "Penn": 9152,
      "TWO": 9153,
      "hers": 9154,
      "nFrom": 9155,
      "exhaust": 9156,
      "holidays": 9157,
      "investment": 9158,
      "Jersey": 9159,
      "asleep": 9160,
      "overs": 9161,
      "Indones": 9162,
      "skipped": 9163,
      "vari": 9164,
      "44": 9165,
      "gifts": 9166,
      "hockey": 9167,
      "bless": 9168,
      "hyped": 9169,
      "dental": 9170,
      "glor": 9171,
      "Harrah": 9172,
      "SF": 9173,
      "thri": 9174,
      "tied": 9175,
      "ERO": 9176,
      "gment": 9177,
      "hia": 9178,
      "slip": 9179,
      "Taiwan": 9180,
      "FT": 9181,
      "Mother": 9182,
      "arguing": 9183,
      "drenched": 9184,
      "ateful": 9185,
      "residents": 9186,
      "Blair": 9187,
      "Brew": 9188,
      "revenue": 9189,
      "Spin": 9190,
      "containers": 9191,
      "Major": 9192,
      "sequence": 9193,
      "finance": 9194,
      "LOS": 9195,
      "professionalism": 9196,
      "nBy": 9197,
      "loudly": 9198,
      "accessories": 9199,
      "Profile": 9200,
      "Cuban": 9201,
      "Style": 9202,
      "Pin": 9203,
      "dense": 9204,
      "vices": 9205,
      "hem": 9206,
      "decline": 9207,
      "sans": 9208,
      "Shares": 9209,
      "renovated": 9210,
      "aries": 9211,
      "meter": 9212,
      "homes": 9213,
      "gooey": 9214,
      "arugula": 9215,
      "coal": 9216,
      "drops": 9217,
      "nAm": 9218,
      "guarante": 9219,
      "vehicles": 9220,
      "dreams": 9221,
      "Bloody": 9222,
      "Egy": 9223,
      "Lamb": 9224,
      "Sah": 9225,
      "istachi": 9226,
      "bold": 9227,
      "Sole": 9228,
      "contemporary": 9229,
      "thoughts": 9230,
      "apply": 9231,
      "combinations": 9232,
      "Brazil": 9233,
      "underwhelmed": 9234,
      "refrigerator": 9235,
      "cet": 9236,
      "merely": 9237,
      "Neither": 9238,
      "ICK": 9239,
      "feedback": 9240,
      "elections": 9241,
      "category": 9242,
      "37": 9243,
      "nWhy": 9244,
      "argum": 9245,
      "ulate": 9246,
      "complicated": 9247,
      "struggling": 9248,
      "escal": 9249,
      "undry": 9250,
      "flaky": 9251,
      "suspic": 9252,
      "attle": 9253,
      "Pub": 9254,
      "Read": 9255,
      "wondered": 9256,
      "Creek": 9257,
      "pir": 9258,
      "packages": 9259,
      "Diamond": 9260,
      "Drive": 9261,
      "4pm": 9262,
      "Later": 9263,
      "aus": 9264,
      "useless": 9265,
      "Bomb": 9266,
      "Halloween": 9267,
      "elder": 9268,
      "Bath": 9269,
      "CON": 9270,
      "carefully": 9271,
      "LOW": 9272,
      "thousand": 9273,
      "Marri": 9274,
      "recommending": 9275,
      "consin": 9276,
      "rushing": 9277,
      "jalapenos": 9278,
      "Skip": 9279,
      "Dirty": 9280,
      "SC": 9281,
      "intim": 9282,
      "udy": 9283,
      "lively": 9284,
      "trading": 9285,
      "Earl": 9286,
      "journey": 9287,
      "nNever": 9288,
      "riptions": 9289,
      "Giants": 9290,
      "Middle": 9291,
      "EVERYTHING": 9292,
      "Times": 9293,
      "Electr": 9294,
      "Ryan": 9295,
      "Wendy": 9296,
      "Baby": 9297,
      "Nick": 9298,
      "Pas": 9299,
      "cone": 9300,
      "tiest": 9301,
      "Anth": 9302,
      "survey": 9303,
      "sections": 9304,
      "WHERE": 9305,
      "braised": 9306,
      "strength": 9307,
      "Filet": 9308,
      "bree": 9309,
      "riding": 9310,
      "teacher": 9311,
      "officer": 9312,
      "circum": 9313,
      "sketchy": 9314,
      "gor": 9315,
      "publ": 9316,
      "Cox": 9317,
      "boarding": 9318,
      "Afghanistan": 9319,
      "uneven": 9320,
      "cler": 9321,
      "Clo": 9322,
      "JUST": 9323,
      "jazz": 9324,
      "dozens": 9325,
      "elper": 9326,
      "Makes": 9327,
      "uling": 9328,
      "decades": 9329,
      "Democr": 9330,
      "occasional": 9331,
      "OT": 9332,
      "posal": 9333,
      "decides": 9334,
      "nerve": 9335,
      "Eye": 9336,
      "Simply": 9337,
      "sauteed": 9338,
      "u00e9tait": 9339,
      "weapons": 9340,
      "Tan": 9341,
      "itudes": 9342,
      "catering": 9343,
      "sinc": 9344,
      "theaters": 9345,
      "Southwest": 9346,
      "sucker": 9347,
      "newspaper": 9348,
      "Lounge": 9349,
      "reward": 9350,
      "irsty": 9351,
      "kindly": 9352,
      "colorful": 9353,
      "celebrating": 9354,
      "uzzi": 9355,
      "Jane": 9356,
      "decad": 9357,
      "bagu": 9358,
      "celebration": 9359,
      "clueless": 9360,
      "leaf": 9361,
      "thers": 9362,
      "Stone": 9363,
      "spoil": 9364,
      "Games": 9365,
      "dairy": 9366,
      "ku": 9367,
      "Drink": 9368,
      "swim": 9369,
      "fir": 9370,
      "inals": 9371,
      "Chan": 9372,
      "headache": 9373,
      "signing": 9374,
      "crisis": 9375,
      "performed": 9376,
      "quarterly": 9377,
      "accompl": 9378,
      "ultimate": 9379,
      "boards": 9380,
      "Pool": 9381,
      "outlet": 9382,
      "patties": 9383,
      "carts": 9384,
      "motiv": 9385,
      "recognize": 9386,
      "Hong": 9387,
      "Metro": 9388,
      "pel": 9389,
      "illegal": 9390,
      "cashiers": 9391,
      "Camelback": 9392,
      "Safe": 9393,
      "Fer": 9394,
      "Field": 9395,
      "Rem": 9396,
      "gian": 9397,
      "herbs": 9398,
      "INT": 9399,
      "employ": 9400,
      "procedure": 9401,
      "Lemon": 9402,
      "Young": 9403,
      "stained": 9404,
      "generation": 9405,
      "activity": 9406,
      "fifth": 9407,
      "slammed": 9408,
      "Yahoo": 9409,
      "reminis": 9410,
      "wrist": 9411,
      "substance": 9412,
      "Anthony": 9413,
      "assa": 9414,
      "todd": 9415,
      "haz": 9416,
      "reads": 9417,
      "True": 9418,
      "documentary": 9419,
      "tiramisu": 9420,
      "tent": 9421,
      "contrast": 9422,
      "7th": 9423,
      "athetic": 9424,
      "chalk": 9425,
      "abandon": 9426,
      "igan": 9427,
      "pretzels": 9428,
      "medal": 9429,
      "sequences": 9430,
      "knots": 9431,
      ";-": 9432,
      "biance": 9433,
      "nK": 9434,
      "petiz": 9435,
      "Online": 9436,
      "bachelorette": 9437,
      "answering": 9438,
      "DELIC": 9439,
      "batch": 9440,
      "rocket": 9441,
      "tha": 9442,
      "whim": 9443,
      "Chop": 9444,
      "curds": 9445,
      "gripe": 9446,
      "Athen": 9447,
      "Ire": 9448,
      "intend": 9449,
      "candid": 9450,
      "Emplo": 9451,
      "entertained": 9452,
      "Yellow": 9453,
      "bummer": 9454,
      "naturally": 9455,
      "----------------": 9456,
      "images": 9457,
      "tests": 9458,
      "aces": 9459,
[...]
